/* Generated by Edge Impulse
 *
 * Permission is hereby granted, free of charge, to any person obtaining a copy
 * of this software and associated documentation files (the "Software"), to deal
 * in the Software without restriction, including without limitation the rights
 * to use, copy, modify, merge, publish, distribute, sublicense, and/or sell
 * copies of the Software, and to permit persons to whom the Software is
 * furnished to do so, subject to the following conditions:
 *
 * The above copyright notice and this permission notice shall be included in
 * all copies or substantial portions of the Software.
 *
 * THE SOFTWARE IS PROVIDED "AS IS", WITHOUT WARRANTY OF ANY KIND, EXPRESS OR
 * IMPLIED, INCLUDING BUT NOT LIMITED TO THE WARRANTIES OF MERCHANTABILITY,
 * FITNESS FOR A PARTICULAR PURPOSE AND NONINFRINGEMENT. IN NO EVENT SHALL THE
 * AUTHORS OR COPYRIGHT HOLDERS BE LIABLE FOR ANY CLAIM, DAMAGES OR OTHER
 * LIABILITY, WHETHER IN AN ACTION OF CONTRACT, TORT OR OTHERWISE, ARISING FROM,
 * OUT OF OR IN CONNECTION WITH THE SOFTWARE OR THE USE OR OTHER DEALINGS IN THE
 * SOFTWARE.
 */

#ifndef _EI_CLASSIFIER_TFLITE_TRAINED_H_
#define _EI_CLASSIFIER_TFLITE_TRAINED_H_

#define EI_CLASSIFIER_TFLITE_ARENA_SIZE     10316

#if defined __GNUC__
#define ALIGN(X) __attribute__((aligned(X)))
#elif defined _MSC_VER
#define ALIGN(X) __declspec(align(X))
#elif defined __TASKING__
#define ALIGN(X) __align(X)
#else
#define ALIGN(X)
#endif
ALIGN(16) const unsigned char trained_tflite[] = {
  0x1c, 0x00, 0x00, 0x00, 0x54, 0x46, 0x4c, 0x33, 0x14, 0x00, 0x20, 0x00,
  0x1c, 0x00, 0x18, 0x00, 0x14, 0x00, 0x10, 0x00, 0x0c, 0x00, 0x00, 0x00,
  0x08, 0x00, 0x04, 0x00, 0x14, 0x00, 0x00, 0x00, 0x1c, 0x00, 0x00, 0x00,
  0x8c, 0x00, 0x00, 0x00, 0xbc, 0x00, 0x00, 0x00, 0x58, 0x24, 0x00, 0x00,
  0x68, 0x24, 0x00, 0x00, 0x10, 0x2f, 0x00, 0x00, 0x03, 0x00, 0x00, 0x00,
  0x01, 0x00, 0x00, 0x00, 0x10, 0x00, 0x00, 0x00, 0x00, 0x00, 0x0a, 0x00,
  0x10, 0x00, 0x0c, 0x00, 0x08, 0x00, 0x04, 0x00, 0x0a, 0x00, 0x00, 0x00,
  0x0c, 0x00, 0x00, 0x00, 0x1c, 0x00, 0x00, 0x00, 0x3c, 0x00, 0x00, 0x00,
  0x0f, 0x00, 0x00, 0x00, 0x73, 0x65, 0x72, 0x76, 0x69, 0x6e, 0x67, 0x5f,
  0x64, 0x65, 0x66, 0x61, 0x75, 0x6c, 0x74, 0x00, 0x01, 0x00, 0x00, 0x00,
  0x04, 0x00, 0x00, 0x00, 0xc4, 0xff, 0xff, 0xff, 0x16, 0x00, 0x00, 0x00,
  0x04, 0x00, 0x00, 0x00, 0x08, 0x00, 0x00, 0x00, 0x6f, 0x75, 0x74, 0x70,
  0x75, 0x74, 0x5f, 0x30, 0x00, 0x00, 0x00, 0x00, 0x01, 0x00, 0x00, 0x00,
  0x04, 0x00, 0x00, 0x00, 0x82, 0xdb, 0xff, 0xff, 0x04, 0x00, 0x00, 0x00,
  0x01, 0x00, 0x00, 0x00, 0x78, 0x00, 0x00, 0x00, 0x01, 0x00, 0x00, 0x00,
  0x0c, 0x00, 0x00, 0x00, 0x08, 0x00, 0x0c, 0x00, 0x08, 0x00, 0x04, 0x00,
  0x08, 0x00, 0x00, 0x00, 0x18, 0x00, 0x00, 0x00, 0x04, 0x00, 0x00, 0x00,
  0x13, 0x00, 0x00, 0x00, 0x6d, 0x69, 0x6e, 0x5f, 0x72, 0x75, 0x6e, 0x74,
  0x69, 0x6d, 0x65, 0x5f, 0x76, 0x65, 0x72, 0x73, 0x69, 0x6f, 0x6e, 0x00,
  0x19, 0x00, 0x00, 0x00, 0x98, 0x23, 0x00, 0x00, 0x90, 0x23, 0x00, 0x00,
  0x64, 0x23, 0x00, 0x00, 0x14, 0x23, 0x00, 0x00, 0xe4, 0x22, 0x00, 0x00,
  0xcc, 0x22, 0x00, 0x00, 0xfc, 0x0b, 0x00, 0x00, 0x0c, 0x07, 0x00, 0x00,
  0xfc, 0x00, 0x00, 0x00, 0xdc, 0x00, 0x00, 0x00, 0xbc, 0x00, 0x00, 0x00,
  0x9c, 0x00, 0x00, 0x00, 0x7c, 0x00, 0x00, 0x00, 0x74, 0x00, 0x00, 0x00,
  0x6c, 0x00, 0x00, 0x00, 0x64, 0x00, 0x00, 0x00, 0x5c, 0x00, 0x00, 0x00,
  0x54, 0x00, 0x00, 0x00, 0x4c, 0x00, 0x00, 0x00, 0x44, 0x00, 0x00, 0x00,
  0x3c, 0x00, 0x00, 0x00, 0x34, 0x00, 0x00, 0x00, 0x2c, 0x00, 0x00, 0x00,
  0x24, 0x00, 0x00, 0x00, 0x04, 0x00, 0x00, 0x00, 0x2e, 0xdc, 0xff, 0xff,
  0x04, 0x00, 0x00, 0x00, 0x10, 0x00, 0x00, 0x00, 0x31, 0x2e, 0x35, 0x2e,
  0x30, 0x00, 0x00, 0x00, 0x00, 0x00, 0x00, 0x00, 0x00, 0x00, 0x00, 0x00,
  0x50, 0xd2, 0xff, 0xff, 0x54, 0xd2, 0xff, 0xff, 0x58, 0xd2, 0xff, 0xff,
  0x5c, 0xd2, 0xff, 0xff, 0x60, 0xd2, 0xff, 0xff, 0x64, 0xd2, 0xff, 0xff,
  0x68, 0xd2, 0xff, 0xff, 0x6c, 0xd2, 0xff, 0xff, 0x70, 0xd2, 0xff, 0xff,
  0x74, 0xd2, 0xff, 0xff, 0x78, 0xd2, 0xff, 0xff, 0x76, 0xdc, 0xff, 0xff,
  0x04, 0x00, 0x00, 0x00, 0x10, 0x00, 0x00, 0x00, 0x01, 0x00, 0x00, 0x00,
  0x19, 0x00, 0x00, 0x00, 0x01, 0x00, 0x00, 0x00, 0x10, 0x00, 0x00, 0x00,
  0x92, 0xdc, 0xff, 0xff, 0x04, 0x00, 0x00, 0x00, 0x10, 0x00, 0x00, 0x00,
  0x01, 0x00, 0x00, 0x00, 0x01, 0x00, 0x00, 0x00, 0x19, 0x00, 0x00, 0x00,
  0x08, 0x00, 0x00, 0x00, 0xae, 0xdc, 0xff, 0xff, 0x04, 0x00, 0x00, 0x00,
  0x10, 0x00, 0x00, 0x00, 0x01, 0x00, 0x00, 0x00, 0x31, 0x00, 0x00, 0x00,
  0x01, 0x00, 0x00, 0x00, 0x08, 0x00, 0x00, 0x00, 0xca, 0xdc, 0xff, 0xff,
  0x04, 0x00, 0x00, 0x00, 0x10, 0x00, 0x00, 0x00, 0x01, 0x00, 0x00, 0x00,
  0x01, 0x00, 0x00, 0x00, 0x31, 0x00, 0x00, 0x00, 0x0d, 0x00, 0x00, 0x00,
  0xe6, 0xdc, 0xff, 0xff, 0x04, 0x00, 0x00, 0x00, 0x00, 0x06, 0x00, 0x00,
  0xa9, 0xc9, 0x0a, 0x3c, 0xc3, 0xd1, 0xa2, 0xbe, 0xce, 0xfd, 0x57, 0x3d,
  0xd2, 0x72, 0xfa, 0x3e, 0x65, 0xf6, 0x5f, 0xbe, 0x46, 0x85, 0x0b, 0x3c,
  0xb1, 0x87, 0x46, 0x3e, 0xd1, 0x24, 0x05, 0xbf, 0xf3, 0xc6, 0x53, 0x3e,
  0x0a, 0x93, 0xa4, 0xbe, 0xf7, 0x75, 0x54, 0xbd, 0xa7, 0xf9, 0xe0, 0xbd,
  0xb0, 0xea, 0xa9, 0x3d, 0x04, 0x3c, 0x5b, 0xbd, 0x0a, 0xde, 0xe6, 0x3d,
  0xf9, 0x98, 0x15, 0xbf, 0xcf, 0xc6, 0xa7, 0x3d, 0x13, 0xd3, 0x91, 0xbe,
  0xeb, 0x41, 0x23, 0xbe, 0x4b, 0xf9, 0xfe, 0x3e, 0x8e, 0x9a, 0xbb, 0x3d,
  0x6e, 0x49, 0x4d, 0x3e, 0x2d, 0x4d, 0x29, 0x3e, 0xe2, 0xea, 0x2e, 0xbf,
  0x9c, 0xf7, 0x6b, 0xbe, 0xcc, 0xe0, 0x33, 0x3f, 0xd4, 0xe4, 0x4f, 0xbe,
  0x19, 0xc2, 0xe7, 0xbe, 0xdb, 0xaf, 0x70, 0xbd, 0x38, 0x92, 0x86, 0xbe,
  0x5a, 0xdd, 0x5c, 0xbb, 0xcf, 0x78, 0xd3, 0x3d, 0x13, 0x82, 0x64, 0xbe,
  0xea, 0x8b, 0x9b, 0xbe, 0x9b, 0x58, 0xe5, 0xbe, 0x17, 0x40, 0xb9, 0xbe,
  0x97, 0x85, 0x45, 0xbd, 0xcc, 0x23, 0x00, 0xbf, 0x59, 0x80, 0x80, 0xbd,
  0xfc, 0x10, 0xbe, 0x3d, 0x24, 0xd8, 0xc7, 0xbd, 0xcc, 0x5a, 0x51, 0x3f,
  0xdb, 0x2d, 0xc0, 0xbe, 0xb2, 0x66, 0x11, 0xbe, 0x11, 0xa4, 0x88, 0xbd,
  0xa7, 0x5f, 0xe6, 0xbe, 0x9a, 0xf9, 0x8d, 0xbd, 0xd9, 0x2a, 0x08, 0x3e,
  0x05, 0x26, 0xbe, 0xbe, 0x44, 0x3c, 0x0e, 0x3e, 0x7e, 0xa2, 0x2a, 0x3e,
  0x15, 0x9f, 0x20, 0xbf, 0xe1, 0x4d, 0x6a, 0xbe, 0x4e, 0x71, 0x28, 0xbe,
  0x2a, 0x51, 0xfb, 0xbe, 0x31, 0xc0, 0xa6, 0x3e, 0xfd, 0xc6, 0xcf, 0xbe,
  0x63, 0xc2, 0x9d, 0x3d, 0x65, 0xe6, 0xbb, 0xbe, 0x4e, 0xf5, 0x03, 0xbf,
  0xe2, 0x3e, 0x90, 0xbe, 0x7c, 0xbc, 0xed, 0xbe, 0x97, 0x7f, 0x3b, 0xbf,
  0x2a, 0x5d, 0x92, 0x3e, 0xe4, 0xec, 0x0f, 0xbf, 0x1d, 0x9e, 0x49, 0x3e,
  0xd3, 0x13, 0x0e, 0xbf, 0x36, 0x22, 0x80, 0xbf, 0x29, 0x0e, 0xdb, 0xbe,
  0x9a, 0x98, 0xc7, 0xbe, 0xd4, 0x24, 0xe4, 0xbe, 0x85, 0x68, 0xa0, 0x3e,
  0x7a, 0x69, 0xa1, 0xbe, 0x0e, 0xb1, 0xde, 0xbd, 0x35, 0x92, 0xb4, 0xbc,
  0xcf, 0x32, 0x8d, 0xbe, 0xcc, 0xf3, 0xb7, 0xbe, 0xa7, 0x76, 0xb5, 0x3e,
  0x9c, 0x94, 0xd2, 0x3c, 0x0f, 0xa0, 0x20, 0x3d, 0xb4, 0x0e, 0x8a, 0x3d,
  0x0a, 0x1f, 0x94, 0xbd, 0x68, 0xe7, 0x2e, 0x3e, 0xe2, 0x20, 0x0f, 0xbe,
  0x23, 0x68, 0x81, 0xbe, 0x54, 0x66, 0x5b, 0x3c, 0xa5, 0x9a, 0xeb, 0x3e,
  0x1b, 0xe3, 0x13, 0xbd, 0x55, 0xab, 0xe3, 0x3c, 0x60, 0x33, 0x4b, 0xbd,
  0xa6, 0xd0, 0x8a, 0x3c, 0x99, 0xc9, 0x7c, 0xbe, 0x7e, 0x74, 0x5b, 0xbe,
  0x32, 0xe9, 0x98, 0x3e, 0x90, 0x74, 0x56, 0xbc, 0xa4, 0x09, 0x72, 0x3d,
  0x56, 0xb8, 0xed, 0x3c, 0xc7, 0x09, 0x9a, 0xbe, 0xf4, 0xe2, 0xd4, 0x3e,
  0x57, 0x2b, 0x7b, 0x3d, 0x40, 0x5f, 0x2f, 0x3d, 0x68, 0x5f, 0xc3, 0xbd,
  0x87, 0xc4, 0xf6, 0x3c, 0x74, 0xf7, 0x9a, 0x3e, 0x7b, 0xad, 0xc6, 0x3d,
  0x9b, 0x89, 0x98, 0xbe, 0x69, 0xf0, 0xce, 0xbd, 0xe1, 0xc0, 0x71, 0x3d,
  0xff, 0x4e, 0x82, 0xbd, 0x12, 0x07, 0x87, 0x3c, 0xf8, 0x0f, 0xd4, 0xba,
  0x6c, 0x91, 0x5b, 0x3e, 0x9e, 0xd7, 0x38, 0x3d, 0xb3, 0x40, 0x6c, 0xbe,
  0x61, 0xb5, 0xe9, 0x3e, 0xb3, 0xb3, 0x68, 0x3d, 0x96, 0x6d, 0x5f, 0xbe,
  0x1d, 0x9e, 0xfc, 0x3d, 0xfb, 0xee, 0xa1, 0xbd, 0x23, 0xa6, 0xd1, 0x3d,
  0x00, 0x60, 0x39, 0xbe, 0x10, 0x71, 0xc8, 0x3d, 0x74, 0xbe, 0xac, 0xbe,
  0x42, 0x32, 0x77, 0xbd, 0x9a, 0x48, 0x37, 0x3f, 0x11, 0x29, 0xb4, 0xbe,
  0x0c, 0x08, 0x43, 0xbe, 0x10, 0x1c, 0xda, 0xbd, 0xf4, 0x57, 0x5e, 0xbd,
  0xde, 0x1c, 0x5c, 0x3d, 0xad, 0x75, 0x38, 0xbe, 0x7e, 0xf9, 0xb3, 0xbd,
  0xc9, 0x44, 0x0d, 0xbe, 0x51, 0xe4, 0xaf, 0xbe, 0x1f, 0xda, 0x05, 0xbf,
  0x33, 0x5b, 0xae, 0xbc, 0x3e, 0x7d, 0x84, 0xbe, 0xfe, 0x53, 0x03, 0xbe,
  0x1c, 0x1c, 0x46, 0xbe, 0x77, 0xc6, 0x2e, 0xbe, 0x81, 0xd0, 0x43, 0x3f,
  0xa3, 0x8b, 0x71, 0xbe, 0x84, 0x44, 0x31, 0xbf, 0xcb, 0x19, 0x17, 0x3e,
  0x24, 0x0f, 0x3e, 0x3e, 0xc8, 0x64, 0x56, 0x3e, 0x2e, 0xec, 0x0d, 0x3e,
  0x3d, 0xe9, 0xa2, 0x3e, 0xb9, 0x10, 0x5e, 0xbe, 0x51, 0x2d, 0x31, 0xbf,
  0x02, 0xf9, 0x90, 0xbf, 0x54, 0x00, 0x18, 0xbc, 0x90, 0x6b, 0x7b, 0x3e,
  0x55, 0x41, 0xd3, 0xbd, 0x72, 0xa6, 0x20, 0x3e, 0x78, 0x0c, 0x19, 0xbe,
  0x2d, 0xc2, 0xf7, 0xbe, 0x46, 0xcd, 0x29, 0xbf, 0xfa, 0xec, 0x53, 0xbf,
  0x5f, 0x50, 0xfc, 0xbe, 0x55, 0xc8, 0xaa, 0x3c, 0x4c, 0xa2, 0xa9, 0x3e,
  0xc9, 0x33, 0x65, 0x3e, 0xe1, 0x24, 0x47, 0x3d, 0xca, 0x0a, 0xb5, 0xbe,
  0xf0, 0xd3, 0x11, 0xbf, 0xcf, 0xcf, 0x0d, 0xbf, 0x77, 0x5a, 0x39, 0xbf,
  0xd6, 0x6d, 0x23, 0xbf, 0x45, 0x53, 0x35, 0xbf, 0xfe, 0x63, 0x3d, 0xbf,
  0x25, 0x24, 0x85, 0xbe, 0x83, 0x91, 0xa1, 0xbe, 0x91, 0xfa, 0x64, 0x3e,
  0x69, 0x5c, 0xcb, 0x3e, 0xd7, 0x44, 0x7c, 0xbe, 0x32, 0x45, 0xbd, 0xbe,
  0x24, 0x91, 0x44, 0xbf, 0x57, 0x1e, 0x2e, 0xbf, 0xc4, 0xb9, 0x40, 0xbe,
  0x84, 0x22, 0xf7, 0xbe, 0xa2, 0x74, 0x74, 0x3e, 0x12, 0x80, 0x3b, 0x3d,
  0xc3, 0xfb, 0x53, 0xbe, 0xd2, 0xd8, 0xfd, 0xbe, 0xd0, 0x3f, 0x38, 0xbf,
  0x0d, 0x90, 0xde, 0xbe, 0xff, 0xfd, 0x22, 0xbe, 0x4f, 0xb3, 0x61, 0xbe,
  0x75, 0x56, 0x30, 0x3e, 0x76, 0x10, 0xd2, 0x3e, 0xdd, 0x1f, 0xaa, 0xbd,
  0x00, 0x34, 0x1b, 0xbe, 0x94, 0xc3, 0xca, 0xbe, 0x2b, 0xd8, 0xf9, 0x3e,
  0xdb, 0x84, 0x96, 0xbd, 0xe8, 0x06, 0xee, 0xbc, 0x44, 0xf2, 0xe8, 0xbd,
  0x78, 0x0a, 0x0e, 0xbc, 0x73, 0x90, 0x56, 0xbe, 0xd7, 0x82, 0x43, 0x3e,
  0xba, 0xee, 0xa4, 0xbe, 0x93, 0xce, 0x38, 0xbe, 0x82, 0x82, 0x00, 0xbd,
  0x12, 0x0e, 0x07, 0xbe, 0x47, 0xed, 0x78, 0x3e, 0x2f, 0x82, 0x8d, 0x3e,
  0x96, 0x4c, 0x0c, 0xbc, 0x5c, 0xf8, 0xe3, 0xbd, 0xf2, 0x47, 0xf2, 0x3c,
  0x27, 0x78, 0xa2, 0x3d, 0x35, 0x49, 0x8d, 0xbe, 0xb7, 0x39, 0x9c, 0xbe,
  0x5e, 0x5a, 0x8f, 0xbe, 0xc0, 0xee, 0xaa, 0x3e, 0xee, 0x36, 0x8d, 0x3d,
  0xe3, 0x48, 0x98, 0xbe, 0x12, 0xc8, 0x48, 0xbe, 0x43, 0x45, 0x43, 0x3e,
  0x5f, 0xdf, 0x36, 0x3e, 0x98, 0xc8, 0x3e, 0x3e, 0x7d, 0x0e, 0x02, 0x3f,
  0x6c, 0x87, 0xf1, 0xbe, 0xda, 0xb4, 0xdd, 0xbe, 0xa1, 0x52, 0x62, 0xbe,
  0xa9, 0x42, 0x88, 0xbe, 0x51, 0x96, 0x68, 0x3e, 0x20, 0xe5, 0x8f, 0x3c,
  0x73, 0x6d, 0x00, 0xbe, 0x4e, 0xcd, 0x15, 0x3e, 0x4e, 0xe4, 0x86, 0x3c,
  0xce, 0x6d, 0xf5, 0xbe, 0xdb, 0x92, 0xa8, 0xbe, 0x30, 0x5b, 0x0e, 0xbe,
  0xd5, 0xb9, 0xd9, 0x3e, 0x75, 0x82, 0x05, 0xbe, 0xd5, 0x47, 0x66, 0x3e,
  0x9f, 0xca, 0xba, 0xbe, 0xd2, 0x8c, 0xcc, 0x3b, 0xd3, 0xb8, 0x0a, 0xbf,
  0x27, 0xa4, 0xb7, 0x3d, 0x0a, 0x39, 0x49, 0x3e, 0xc4, 0x91, 0x88, 0xbd,
  0xcf, 0xb4, 0xbf, 0xbd, 0x1f, 0x4c, 0x27, 0x3e, 0x6b, 0x3c, 0xf3, 0xbe,
  0x13, 0x88, 0x15, 0xbe, 0x31, 0x63, 0x98, 0xbe, 0xd7, 0x71, 0x1b, 0x3e,
  0x39, 0x7a, 0x86, 0x3e, 0xb0, 0x80, 0xcc, 0x3c, 0xc0, 0x6f, 0xd9, 0xbe,
  0xd2, 0x46, 0x15, 0xbd, 0xbf, 0x32, 0x1d, 0xbf, 0xae, 0x7d, 0x8b, 0xbd,
  0x68, 0xce, 0x2c, 0xbf, 0x4d, 0x3a, 0xde, 0x3e, 0xd0, 0xf1, 0x8b, 0x3d,
  0x16, 0xdf, 0xcf, 0x3d, 0x3c, 0x72, 0xfe, 0xbe, 0x4a, 0xbc, 0x01, 0xbf,
  0x45, 0xd6, 0xea, 0xbe, 0xcf, 0xd8, 0x15, 0xbd, 0xe4, 0x42, 0x73, 0xbf,
  0x33, 0x29, 0xc8, 0xbc, 0x58, 0x08, 0x37, 0xbe, 0xff, 0x99, 0x5c, 0xbf,
  0x8a, 0x55, 0x55, 0xbe, 0xdb, 0x83, 0xbc, 0xbe, 0x56, 0x59, 0xda, 0xbd,
  0xba, 0xed, 0x72, 0x3e, 0x92, 0x44, 0x52, 0x3e, 0xae, 0x33, 0x2f, 0xbe,
  0xc6, 0xce, 0x1c, 0x3e, 0x36, 0x7f, 0x3a, 0xbf, 0xe5, 0x0b, 0x68, 0xbe,
  0xa6, 0x9e, 0x98, 0xbe, 0xf7, 0xbb, 0xb5, 0xbe, 0xb0, 0x7d, 0xfd, 0x3d,
  0xbf, 0xeb, 0x95, 0xbd, 0xa3, 0xaa, 0x6f, 0xbe, 0x24, 0x03, 0x9e, 0x3e,
  0x41, 0x02, 0xf2, 0xbe, 0x97, 0x94, 0x3b, 0x3d, 0x47, 0x6b, 0x0f, 0x3f,
  0xa1, 0x95, 0x4e, 0xbf, 0xdc, 0xcf, 0x9b, 0xbd, 0x68, 0xa5, 0x05, 0xbe,
  0x2b, 0x84, 0x09, 0x3f, 0x58, 0xb2, 0xe5, 0xbd, 0xee, 0x04, 0x2f, 0x3d,
  0x89, 0xfc, 0xb1, 0xbc, 0x11, 0xe3, 0x89, 0x3e, 0x02, 0x19, 0xe8, 0x3d,
  0xe5, 0xd4, 0x2d, 0xbd, 0xaa, 0xea, 0x92, 0xbd, 0x07, 0xdb, 0x2f, 0x3e,
  0xfa, 0x8b, 0x45, 0xbe, 0xd9, 0xc9, 0x1f, 0x3e, 0xc1, 0x2e, 0x2e, 0xbe,
  0xf5, 0x0e, 0xa3, 0x3e, 0xd7, 0x4c, 0x18, 0xbe, 0x77, 0x5a, 0x86, 0xbd,
  0x41, 0x2c, 0x07, 0x3e, 0x22, 0x68, 0x91, 0xbe, 0x0b, 0xcb, 0x58, 0xbe,
  0x62, 0xe9, 0x29, 0xbd, 0x4e, 0xf2, 0xb8, 0xbe, 0xd1, 0x07, 0xde, 0xbe,
  0x24, 0xcf, 0xaf, 0x3d, 0xe5, 0xf9, 0xbc, 0xbd, 0x57, 0x68, 0x81, 0xbb,
  0x04, 0xc4, 0x85, 0xbe, 0xce, 0x62, 0x82, 0xbe, 0x0b, 0x5c, 0x18, 0xbc,
  0x27, 0x7d, 0x10, 0x3f, 0x49, 0x06, 0x36, 0x3d, 0x20, 0x9d, 0x0c, 0xbf,
  0x95, 0x2c, 0xc2, 0xbe, 0x0f, 0xc9, 0x55, 0xbe, 0xa3, 0x36, 0x8c, 0xbd,
  0x73, 0xfc, 0xfe, 0xbc, 0xf3, 0x46, 0xa1, 0xbd, 0x59, 0x1b, 0x09, 0xbe,
  0x42, 0x23, 0xaf, 0x3e, 0xe9, 0xba, 0x18, 0xbf, 0x32, 0xdb, 0xd8, 0xbe,
  0xf9, 0x6f, 0x2e, 0xbe, 0xb7, 0x56, 0xba, 0xbd, 0x6a, 0x4a, 0x64, 0x3d,
  0x42, 0xda, 0xce, 0xbd, 0x24, 0xbe, 0x2a, 0x3f, 0x6c, 0xb7, 0xe9, 0x3c,
  0x11, 0xcc, 0xf6, 0xbe, 0xd0, 0x14, 0x00, 0xbf, 0xbc, 0x1f, 0x13, 0xbe,
  0xa3, 0x28, 0xfb, 0x3d, 0xd4, 0x06, 0xad, 0x3e, 0xc5, 0xdc, 0x27, 0x3d,
  0xbb, 0xcd, 0x87, 0xbe, 0x59, 0xd0, 0xd4, 0xbe, 0xb4, 0x06, 0xe0, 0xbc,
  0x0d, 0x00, 0xa9, 0x3d, 0x91, 0xd3, 0x24, 0xbf, 0x52, 0x28, 0x2c, 0x3d,
  0xa0, 0xfc, 0x11, 0xbe, 0xfd, 0xdf, 0xa0, 0x3d, 0xac, 0x2f, 0x84, 0xbe,
  0x1b, 0x4c, 0x00, 0x3e, 0x48, 0xd3, 0xca, 0xbe, 0xcf, 0x9b, 0xe1, 0xbc,
  0x11, 0xc2, 0x2a, 0xbf, 0x0a, 0x11, 0x5b, 0xbd, 0xb3, 0x3a, 0x34, 0x3f,
  0x9a, 0xd4, 0x90, 0xbd, 0xbe, 0x7a, 0x09, 0xbe, 0x7b, 0x90, 0x67, 0x3e,
  0xba, 0x08, 0xc1, 0xbe, 0x30, 0xac, 0xca, 0xbc, 0xe1, 0x14, 0xf4, 0xbe,
  0x91, 0xbb, 0xed, 0x3e, 0x87, 0x14, 0xde, 0x3c, 0xb5, 0xd2, 0x01, 0xbe,
  0x73, 0xbf, 0x89, 0xbe, 0xa2, 0xb3, 0x91, 0xbe, 0x9e, 0x31, 0xd4, 0xbe,
  0x98, 0x5e, 0x97, 0x3c, 0x34, 0x81, 0xe8, 0xbd, 0x3d, 0xee, 0xb6, 0x3d,
  0xa8, 0x0e, 0xf9, 0xbc, 0x4b, 0x6c, 0x40, 0xbd, 0xf2, 0xcd, 0x8f, 0xbe,
  0x43, 0x5b, 0xbc, 0xbe, 0xf7, 0xec, 0x39, 0x3e, 0x8a, 0xd5, 0x09, 0x3f,
  0x83, 0x9c, 0x14, 0xbd, 0x0b, 0xcd, 0xed, 0x3e, 0x17, 0x9c, 0x68, 0xbd,
  0x7b, 0x05, 0x16, 0xbe, 0xbc, 0x1f, 0x6f, 0xbd, 0xfb, 0x10, 0x39, 0xbe,
  0xbf, 0xfc, 0xca, 0xbd, 0xad, 0xf5, 0x3a, 0xbe, 0x1c, 0x5c, 0xe6, 0x3b,
  0xf2, 0xe2, 0xff, 0xff, 0x04, 0x00, 0x00, 0x00, 0xe0, 0x04, 0x00, 0x00,
  0xc2, 0x84, 0x3c, 0xbf, 0x6c, 0xac, 0x5c, 0x3e, 0x0c, 0xe3, 0x21, 0xbe,
  0x18, 0xf7, 0x11, 0x3f, 0x96, 0x32, 0x03, 0xbf, 0x46, 0x31, 0x70, 0x3d,
  0x75, 0x9b, 0xc9, 0xba, 0x41, 0xee, 0x93, 0xbc, 0x31, 0x40, 0xe1, 0x3c,
  0xbb, 0x87, 0x2e, 0x3d, 0x23, 0x3c, 0x10, 0xbe, 0x99, 0xc8, 0x95, 0xbd,
  0x17, 0xd5, 0x19, 0xbe, 0xc2, 0x18, 0x09, 0x3e, 0xd0, 0x7a, 0xa1, 0xbe,
  0xa1, 0xf5, 0x14, 0xbf, 0xfd, 0xd1, 0x4a, 0xbe, 0xfc, 0x8f, 0x19, 0xbe,
  0x4d, 0xa4, 0x09, 0x3e, 0x5a, 0x39, 0x0e, 0x3d, 0xb6, 0xa0, 0x17, 0xbd,
  0x39, 0xff, 0x84, 0xba, 0x50, 0xe0, 0x1b, 0xb9, 0x96, 0xdf, 0x30, 0xbd,
  0x33, 0xcc, 0x20, 0xbe, 0xd9, 0xf5, 0x14, 0xbe, 0x4b, 0x66, 0xff, 0xbe,
  0x19, 0x41, 0x60, 0x3e, 0xe7, 0x53, 0xbd, 0xbe, 0x19, 0x6a, 0x61, 0xbe,
  0xb6, 0x22, 0x91, 0xbe, 0xac, 0x30, 0xb3, 0x3d, 0xc4, 0xbd, 0xe5, 0xbe,
  0x33, 0xa1, 0x46, 0xbe, 0x74, 0xdf, 0x9f, 0x3e, 0x36, 0xa5, 0x5d, 0xbd,
  0xaf, 0x60, 0x4d, 0x3d, 0xec, 0xa2, 0xe5, 0xbd, 0x44, 0x76, 0x17, 0xbe,
  0x70, 0xba, 0xe4, 0x3d, 0x64, 0x64, 0xcb, 0x3e, 0x5e, 0x3f, 0xf9, 0x3d,
  0x34, 0x89, 0xae, 0x3d, 0xa9, 0x0e, 0x03, 0xbf, 0xfb, 0xe6, 0x83, 0x3e,
  0x4e, 0xc5, 0xae, 0x3d, 0xdf, 0x2d, 0x9c, 0xbe, 0xee, 0xb9, 0x70, 0x3e,
  0x7d, 0x82, 0x47, 0x3e, 0xa4, 0xb6, 0x56, 0xbe, 0x98, 0x72, 0x42, 0x3e,
  0x52, 0x21, 0x27, 0xbe, 0xd3, 0x32, 0x4c, 0x3e, 0x70, 0xa1, 0xa2, 0x3e,
  0x47, 0x72, 0xac, 0x3d, 0x86, 0xe0, 0xb8, 0xbd, 0xfb, 0x78, 0x84, 0xbe,
  0x0a, 0xd3, 0x2d, 0x3e, 0x66, 0xea, 0x10, 0x3d, 0xee, 0x16, 0xe6, 0xbe,
  0xca, 0xcf, 0x49, 0x3e, 0xb0, 0x03, 0xb0, 0x3e, 0xfc, 0x48, 0x97, 0xbe,
  0xdf, 0x9c, 0xae, 0x3e, 0x84, 0x72, 0x45, 0xbe, 0xc2, 0x29, 0x5f, 0x3e,
  0x54, 0xa3, 0x4d, 0x3e, 0x5a, 0xa9, 0xc3, 0x3d, 0xaa, 0x8f, 0x41, 0xbe,
  0x32, 0x39, 0x0b, 0xbe, 0x6d, 0x7b, 0x0b, 0x3e, 0xf6, 0x2c, 0x40, 0xbe,
  0x11, 0x34, 0x8f, 0xbe, 0x83, 0xab, 0x02, 0x3e, 0xb0, 0xaa, 0xba, 0x3e,
  0x39, 0x18, 0xcd, 0xbe, 0x94, 0x30, 0x80, 0x3e, 0x24, 0x3d, 0x15, 0xbe,
  0x0d, 0xcb, 0x8d, 0xbe, 0xee, 0xbf, 0x05, 0xbe, 0x78, 0x79, 0x0a, 0xbf,
  0x80, 0xd3, 0x68, 0x3e, 0x41, 0x2c, 0xbd, 0xbd, 0xfe, 0x49, 0xd8, 0x3d,
  0x2c, 0xd0, 0xf7, 0xbd, 0x45, 0x8f, 0x81, 0x3d, 0x59, 0x17, 0xa1, 0xbd,
  0x99, 0x6a, 0x6b, 0xbe, 0xa7, 0xcc, 0x3a, 0x3d, 0xb2, 0xc9, 0xea, 0xbc,
  0x37, 0x4e, 0xef, 0xbd, 0x5b, 0x44, 0xb7, 0x3e, 0x04, 0xb5, 0x1a, 0x3e,
  0x0a, 0x81, 0x8b, 0xbd, 0xf5, 0x0d, 0xc0, 0x3e, 0x5b, 0x09, 0x60, 0x3d,
  0x51, 0x3c, 0xd7, 0x3e, 0x33, 0x62, 0x5d, 0x3e, 0x66, 0x25, 0x7d, 0xbd,
  0xb0, 0xce, 0x21, 0xbd, 0xa1, 0x65, 0xa2, 0x3d, 0x4a, 0x80, 0x27, 0x3e,
  0x0f, 0xde, 0x52, 0x3c, 0x02, 0x09, 0x30, 0xbe, 0x9e, 0xda, 0x80, 0xbd,
  0x0e, 0xe4, 0xff, 0xbe, 0x30, 0xe0, 0x84, 0xbf, 0x7f, 0x76, 0xae, 0xbe,
  0x35, 0x2d, 0x71, 0xbd, 0xa1, 0x6d, 0xf4, 0x3d, 0x2c, 0x43, 0x09, 0xbd,
  0xec, 0x12, 0x1a, 0xbd, 0xcd, 0x9e, 0xd0, 0x3d, 0x4c, 0x4b, 0x8f, 0xbe,
  0xae, 0x68, 0xb6, 0x3e, 0xf7, 0xd4, 0x5a, 0xbe, 0xe7, 0xd5, 0x3a, 0xbe,
  0xb4, 0x8b, 0xec, 0xbe, 0xe6, 0x73, 0xf2, 0x3e, 0x41, 0xc8, 0xcb, 0xbe,
  0xe8, 0x52, 0xcf, 0x3d, 0x4d, 0x69, 0x0d, 0xbe, 0xac, 0xe8, 0x1f, 0xbe,
  0xd7, 0xf0, 0x4e, 0xbe, 0xdc, 0xd5, 0x15, 0x3f, 0xfc, 0x1d, 0xf0, 0xbe,
  0x85, 0x3d, 0xaa, 0xbd, 0xd3, 0x06, 0x3b, 0xbe, 0x74, 0x52, 0x0e, 0x3e,
  0x88, 0xe8, 0x3b, 0x3d, 0xf0, 0x25, 0xe4, 0xbe, 0xf8, 0x40, 0x88, 0x3e,
  0x91, 0x30, 0x95, 0xbe, 0x6f, 0x41, 0x45, 0xbc, 0xfe, 0x0b, 0x1a, 0x3e,
  0x92, 0x8d, 0x17, 0xbe, 0xa1, 0x40, 0x75, 0xbc, 0x6f, 0xba, 0x91, 0x3e,
  0x98, 0x0c, 0x5b, 0xbe, 0x00, 0xc6, 0x40, 0x3d, 0xfa, 0xdc, 0x90, 0xbe,
  0x2a, 0xc5, 0x67, 0x3e, 0xa8, 0x8e, 0x44, 0xbe, 0x01, 0x76, 0xbb, 0xbe,
  0xd6, 0x51, 0xc2, 0x3e, 0x85, 0xd3, 0x04, 0xbf, 0x7f, 0x23, 0xdb, 0x3d,
  0xde, 0x6d, 0x05, 0x3d, 0xd1, 0x4e, 0xd7, 0xbd, 0xeb, 0x2a, 0x54, 0xbc,
  0xca, 0xde, 0xc2, 0x3e, 0x04, 0x1e, 0x32, 0xbe, 0x20, 0x68, 0x57, 0x3d,
  0xd4, 0x0c, 0x98, 0xbe, 0x23, 0x3a, 0x47, 0x3e, 0x02, 0x36, 0xee, 0xbd,
  0xe8, 0x30, 0x59, 0xbd, 0x7d, 0x81, 0xb8, 0x3d, 0xb1, 0xb3, 0x37, 0xbe,
  0x99, 0x1e, 0xc9, 0xbd, 0x9a, 0x20, 0xa6, 0x3e, 0x1e, 0xe2, 0xe8, 0xbe,
  0x16, 0xe6, 0x58, 0xbc, 0x27, 0x81, 0x75, 0xbe, 0x7d, 0x4e, 0x0c, 0xbe,
  0x0a, 0x5c, 0xfc, 0x3e, 0xe2, 0x07, 0xfd, 0xbe, 0x67, 0x76, 0xa7, 0x3e,
  0x3a, 0xfd, 0x22, 0xbe, 0xa7, 0x41, 0x01, 0xbd, 0x3a, 0xe4, 0x86, 0x3e,
  0xbf, 0x42, 0xb7, 0xbe, 0x30, 0x63, 0xbd, 0x3d, 0x01, 0x86, 0x7d, 0x3d,
  0x38, 0xeb, 0xa5, 0xbe, 0x38, 0x08, 0x62, 0x3e, 0xf9, 0x81, 0x45, 0xbd,
  0x59, 0x8f, 0x1c, 0xbe, 0x60, 0x96, 0x15, 0x3f, 0xec, 0x1b, 0xe9, 0xbe,
  0xe9, 0x53, 0x0d, 0x3e, 0xba, 0x5c, 0xa5, 0xbb, 0xc5, 0xf9, 0xe6, 0x3d,
  0x47, 0x0d, 0x84, 0x3d, 0x82, 0x4e, 0x8e, 0xbe, 0xa8, 0x58, 0x4e, 0xbc,
  0x62, 0x03, 0x8d, 0x3d, 0xed, 0xa1, 0x01, 0xbf, 0xa4, 0x1a, 0xf6, 0x3e,
  0x30, 0x0f, 0xbd, 0xbd, 0x1e, 0x0e, 0x68, 0xbe, 0xd0, 0x57, 0x04, 0x3f,
  0x19, 0x7f, 0x81, 0xbe, 0x24, 0x92, 0x93, 0x3c, 0xca, 0x5b, 0xb2, 0x3e,
  0xb7, 0x20, 0x84, 0xbe, 0xb3, 0x03, 0xda, 0x3e, 0x30, 0x14, 0xa4, 0x3c,
  0x8d, 0x81, 0x9d, 0xbe, 0xe7, 0xc8, 0x1d, 0xbe, 0x77, 0x52, 0x08, 0xbf,
  0x9c, 0xbb, 0x9a, 0xbe, 0xfb, 0x41, 0x24, 0xbd, 0x96, 0x97, 0x15, 0xbe,
  0x5b, 0x42, 0x78, 0x3d, 0x9f, 0xf9, 0xa7, 0x3d, 0x01, 0xb6, 0xc1, 0xbd,
  0xae, 0xa3, 0xd2, 0x3d, 0x45, 0xab, 0x69, 0xbf, 0xde, 0x6d, 0x42, 0xbf,
  0x9a, 0x3d, 0x66, 0xbd, 0x8b, 0x2e, 0x5a, 0x3e, 0xb4, 0x60, 0x1a, 0x3e,
  0x32, 0xc2, 0xa7, 0x3e, 0x86, 0x66, 0x7f, 0x3e, 0x1d, 0xef, 0x23, 0x3e,
  0x90, 0xd9, 0x28, 0x3e, 0xdb, 0x1a, 0xe1, 0xbd, 0x4e, 0xd7, 0xc1, 0x3d,
  0x23, 0xbf, 0x0f, 0x3e, 0x15, 0x14, 0x9e, 0x3d, 0xc9, 0x99, 0xfc, 0x3e,
  0x50, 0x67, 0x78, 0x3e, 0x9c, 0xc7, 0x62, 0x3d, 0xc4, 0xa7, 0x13, 0xbc,
  0xb0, 0x4d, 0xd9, 0x3e, 0x68, 0xb2, 0x7c, 0xbb, 0x57, 0xd3, 0x09, 0x3e,
  0x79, 0x48, 0x76, 0x3d, 0xda, 0xf5, 0xb7, 0x3d, 0xe4, 0xbf, 0xb1, 0x3d,
  0x49, 0x80, 0x8e, 0xbd, 0xe9, 0xc0, 0x78, 0x3d, 0x72, 0x8b, 0xd3, 0x3d,
  0xc2, 0x48, 0x77, 0xbf, 0x8c, 0x10, 0xfe, 0xbe, 0x8c, 0x8a, 0x93, 0xbe,
  0x46, 0x37, 0xef, 0xbe, 0x40, 0xc2, 0x8e, 0xbe, 0xae, 0x0f, 0x90, 0xbe,
  0xc2, 0x07, 0xb8, 0xbd, 0xc4, 0x83, 0xa0, 0x3d, 0xe0, 0x37, 0x1f, 0xbe,
  0xf3, 0xba, 0xac, 0x3c, 0x41, 0xc2, 0xea, 0xbd, 0x0c, 0x17, 0x8a, 0xbd,
  0x7f, 0x18, 0xab, 0xbd, 0x11, 0x1a, 0x59, 0x3d, 0x7b, 0xa2, 0x00, 0x3f,
  0x34, 0x94, 0xdb, 0x3e, 0xe1, 0x19, 0xb0, 0x3d, 0x22, 0xc9, 0xaf, 0x3e,
  0xbb, 0x08, 0xde, 0x3e, 0x6c, 0x97, 0xc8, 0x3d, 0xc5, 0x41, 0x9c, 0xbe,
  0x1a, 0x3f, 0x61, 0xbd, 0xd3, 0x57, 0x24, 0x3e, 0x3f, 0xb6, 0x37, 0x3e,
  0x20, 0xfe, 0xe5, 0x3d, 0x48, 0xd5, 0xcb, 0xbd, 0x52, 0x1d, 0x96, 0xbe,
  0x60, 0xa9, 0x3d, 0xbe, 0xd1, 0x32, 0x8f, 0xbd, 0x02, 0x5a, 0xb9, 0xbe,
  0x2e, 0x9d, 0x5d, 0xbe, 0x2d, 0x66, 0xf5, 0xbe, 0xb2, 0x62, 0x9b, 0xbe,
  0xe7, 0xcd, 0x99, 0xbd, 0x8f, 0xb2, 0x1f, 0xbe, 0x17, 0x13, 0x2f, 0x3d,
  0x82, 0x5d, 0xdd, 0x3d, 0xca, 0xa3, 0xf0, 0x3d, 0xa0, 0x73, 0xa6, 0x3d,
  0x51, 0x6c, 0x8f, 0x3e, 0xe1, 0x71, 0xe3, 0xbe, 0x6a, 0x74, 0x1f, 0xbe,
  0xff, 0x15, 0x20, 0x3e, 0x82, 0x9c, 0x21, 0xbe, 0x1f, 0x89, 0x23, 0x3d,
  0x8f, 0x97, 0x98, 0xbc, 0x08, 0x51, 0x9b, 0xbc, 0x7f, 0x02, 0xbf, 0x3d,
  0x99, 0x78, 0x1a, 0x3e, 0xb3, 0xc2, 0xb0, 0x3d, 0x92, 0xb8, 0x3c, 0xbe,
  0xb6, 0x46, 0x32, 0x3e, 0xb3, 0x19, 0x44, 0x3f, 0x95, 0xea, 0x7f, 0x3d,
  0x5b, 0x2b, 0xaa, 0x3e, 0x6b, 0x37, 0x74, 0xbe, 0x66, 0x25, 0x21, 0xbb,
  0xd0, 0x38, 0xac, 0x3d, 0xa4, 0x9e, 0xc0, 0xbc, 0xdd, 0x00, 0xe7, 0xbd,
  0xaf, 0x95, 0x26, 0xbe, 0x1a, 0x35, 0xf8, 0xbd, 0x2c, 0xd6, 0x89, 0x3e,
  0x26, 0xef, 0x7e, 0xbd, 0x11, 0x42, 0xa2, 0x3e, 0xee, 0xfc, 0xcc, 0xbc,
  0x12, 0x82, 0x75, 0xbe, 0xd6, 0x24, 0x74, 0x3f, 0xa1, 0x6f, 0x96, 0x3e,
  0xbb, 0xbc, 0xb8, 0xbe, 0x36, 0xec, 0xc6, 0xbc, 0x95, 0x01, 0xee, 0x3d,
  0x86, 0x57, 0x2a, 0xbd, 0xf1, 0x9a, 0x89, 0xbe, 0x7f, 0x0a, 0x1c, 0xbe,
  0xa5, 0x42, 0x81, 0x3e, 0xe2, 0x24, 0x8a, 0xbe, 0xe1, 0x5c, 0x91, 0x3e,
  0xde, 0xe7, 0xff, 0xff, 0x04, 0x00, 0x00, 0x00, 0xc0, 0x16, 0x00, 0x00,
  0xc0, 0x5e, 0x22, 0x3e, 0xa3, 0xa0, 0xee, 0xbe, 0xdb, 0x74, 0x2c, 0x3e,
  0x85, 0x73, 0x80, 0xbd, 0x1b, 0x33, 0x8a, 0x3d, 0x50, 0x23, 0x1d, 0xbf,
  0x4b, 0xa4, 0x75, 0xbe, 0xbb, 0x73, 0x2f, 0x3e, 0x3f, 0x7f, 0xb7, 0x3d,
  0x55, 0xb8, 0xbb, 0x3e, 0x88, 0xe4, 0x05, 0xbf, 0x35, 0xfc, 0x23, 0xbe,
  0xad, 0xa9, 0xb8, 0x3d, 0x8d, 0x1a, 0x0f, 0xbf, 0xfe, 0x06, 0x3a, 0xbf,
  0x9e, 0x3b, 0x17, 0xbd, 0xe3, 0x86, 0x8d, 0x3e, 0xa9, 0xbf, 0x9e, 0x3e,
  0xfe, 0x94, 0xb9, 0x3e, 0x3e, 0xc9, 0x8b, 0xbe, 0x82, 0xcc, 0x42, 0x3d,
  0x40, 0x8a, 0x30, 0xbe, 0x45, 0xda, 0x11, 0xbe, 0xe1, 0x31, 0x82, 0x3d,
  0xbf, 0x42, 0x1b, 0xbe, 0xda, 0x78, 0x37, 0x3e, 0xb6, 0x38, 0x73, 0xbe,
  0x9b, 0x92, 0x94, 0xbd, 0xd1, 0x78, 0x6c, 0x3d, 0xcf, 0x00, 0xf5, 0xbe,
  0x59, 0x58, 0x14, 0xbf, 0x73, 0xcf, 0xd5, 0xbe, 0x39, 0x1b, 0x9b, 0x3e,
  0xf9, 0x77, 0x93, 0x3e, 0x08, 0xde, 0xd3, 0x3e, 0xf1, 0x08, 0x37, 0xbd,
  0x29, 0xc1, 0x99, 0xbd, 0x75, 0x39, 0x71, 0xbd, 0xa9, 0x72, 0xdf, 0x3d,
  0x35, 0xb5, 0x7f, 0x3e, 0x0e, 0xe7, 0x35, 0xbc, 0x7d, 0xa9, 0x15, 0x3e,
  0xe0, 0x4a, 0x31, 0xbd, 0xfe, 0x3c, 0xde, 0x3d, 0xae, 0x01, 0x8e, 0x3d,
  0x79, 0xce, 0x4a, 0xbf, 0xe0, 0xb8, 0x08, 0xbe, 0x9b, 0x94, 0xff, 0xbc,
  0x02, 0xc6, 0x9e, 0x3d, 0xdd, 0x60, 0x80, 0x3e, 0x45, 0xd8, 0x5a, 0x3e,
  0x31, 0xfd, 0xc5, 0xbd, 0x69, 0x3e, 0xba, 0x3d, 0xdf, 0x06, 0xc4, 0xbd,
  0xaa, 0x55, 0x4a, 0xbe, 0x33, 0xe1, 0x21, 0x3e, 0x76, 0xb7, 0xf6, 0x3c,
  0x55, 0x2a, 0xc0, 0x3d, 0xec, 0x71, 0x41, 0xbe, 0xcd, 0xe4, 0xd0, 0x3d,
  0x0b, 0xe9, 0x0e, 0x3d, 0xe7, 0xc5, 0x72, 0xbf, 0xe7, 0x35, 0x68, 0xbe,
  0x07, 0xc2, 0xd4, 0xbe, 0x36, 0xa4, 0xa6, 0x3e, 0x96, 0xeb, 0xad, 0x3e,
  0xe0, 0xec, 0x67, 0x3e, 0x2b, 0x2f, 0x98, 0xbd, 0x13, 0x76, 0x23, 0x3e,
  0x77, 0xc2, 0x5f, 0xbe, 0x84, 0xf2, 0x32, 0x3d, 0xa9, 0xed, 0x0a, 0xbe,
  0x18, 0xb7, 0xc4, 0x3d, 0xb4, 0x43, 0x96, 0x3e, 0xca, 0x70, 0x86, 0xbe,
  0x62, 0xac, 0x61, 0xbe, 0x68, 0xd9, 0x32, 0xbe, 0x66, 0xa3, 0xe1, 0x3d,
  0xd3, 0x5e, 0x06, 0xbf, 0x96, 0x1b, 0xed, 0xbe, 0x76, 0x76, 0x03, 0x3e,
  0xcf, 0xb3, 0x97, 0xba, 0xa7, 0x8f, 0x92, 0x3e, 0xb6, 0x14, 0x3f, 0xbe,
  0x85, 0xe7, 0x80, 0x3d, 0x66, 0x25, 0xb3, 0xbd, 0xfb, 0x6f, 0x0b, 0x3e,
  0xf5, 0x08, 0x94, 0xbe, 0x25, 0xd2, 0x9f, 0x3d, 0xb7, 0x7e, 0xb9, 0x3e,
  0xa3, 0x5f, 0x0b, 0xbe, 0xcb, 0xf2, 0x3b, 0xbe, 0x43, 0x89, 0x2c, 0xbe,
  0xd5, 0x3b, 0xee, 0x3d, 0x05, 0xf8, 0x0c, 0xbf, 0x95, 0xba, 0x14, 0xbf,
  0x55, 0x6e, 0x93, 0x3d, 0x80, 0xb3, 0x5b, 0x3d, 0x13, 0x1a, 0xce, 0x3e,
  0x62, 0xef, 0x33, 0xbe, 0x70, 0xa9, 0xe9, 0x3d, 0xbb, 0x76, 0xe4, 0xbd,
  0x27, 0xbe, 0x0b, 0x3e, 0x89, 0xe8, 0xf8, 0xbe, 0xf8, 0xfb, 0xdd, 0xbd,
  0xc7, 0x83, 0x07, 0x3e, 0x19, 0x5f, 0x3b, 0xbe, 0x9e, 0xee, 0x87, 0xbd,
  0x2b, 0x9d, 0x86, 0xbe, 0xb5, 0x40, 0x80, 0x3e, 0x7b, 0xd9, 0x18, 0xbf,
  0xbe, 0x5a, 0x44, 0xbf, 0x48, 0x87, 0x8c, 0x3e, 0x58, 0x66, 0x0e, 0x3e,
  0xc2, 0x76, 0xfa, 0x3e, 0x4d, 0x23, 0x01, 0xbe, 0xee, 0xf0, 0x6c, 0x3d,
  0x5e, 0xe8, 0x97, 0xbe, 0x79, 0x63, 0xbd, 0x3d, 0x75, 0x9f, 0x37, 0x3e,
  0x6b, 0x6a, 0xd8, 0x3d, 0x55, 0xdd, 0x21, 0x3e, 0x0a, 0x35, 0x8f, 0xbe,
  0x7e, 0x56, 0x6a, 0x3d, 0x6b, 0xb6, 0xea, 0xbe, 0x96, 0xcd, 0xfa, 0x3d,
  0x81, 0x76, 0x03, 0xbf, 0x16, 0x35, 0xe5, 0xbe, 0xe9, 0xf3, 0x49, 0x3e,
  0xb8, 0xc5, 0x10, 0xbd, 0x8e, 0xcc, 0x08, 0x3f, 0xb1, 0x63, 0x8a, 0xbe,
  0x78, 0xbf, 0x31, 0x3d, 0xa6, 0x96, 0x78, 0xbe, 0x40, 0x8c, 0x9d, 0x3c,
  0xcb, 0x7c, 0xa9, 0x3e, 0x41, 0xfa, 0x81, 0xbe, 0x80, 0x1f, 0x23, 0x3e,
  0xda, 0xb8, 0x8d, 0xbe, 0xa1, 0x9a, 0x37, 0xbe, 0x1e, 0xa2, 0xcf, 0xbe,
  0x98, 0xb5, 0x6f, 0x3e, 0x96, 0x3c, 0x89, 0xbe, 0xfd, 0xdb, 0x01, 0xbf,
  0x7a, 0x55, 0x5d, 0x3e, 0x3a, 0x41, 0xc5, 0xbc, 0xf5, 0x56, 0x96, 0x3e,
  0xd6, 0x14, 0x72, 0xbd, 0x2c, 0xdb, 0x9a, 0x3d, 0xf7, 0x0e, 0xda, 0xbe,
  0xd2, 0x66, 0x59, 0x3e, 0xd2, 0x59, 0xb1, 0x3e, 0x07, 0x0f, 0xf2, 0x3c,
  0x62, 0x71, 0x76, 0x3b, 0xc7, 0xe9, 0xee, 0xbd, 0x48, 0x58, 0xbd, 0xbd,
  0x8f, 0xb5, 0xe6, 0xbe, 0xa2, 0x9e, 0x52, 0x3e, 0x90, 0x31, 0x4e, 0xbe,
  0x8a, 0xb9, 0xc2, 0xbe, 0xb7, 0xf0, 0xef, 0x3d, 0x82, 0x1a, 0xde, 0xbe,
  0x0a, 0x75, 0x2d, 0xbf, 0x45, 0xcf, 0xeb, 0xbc, 0x4e, 0x22, 0xbf, 0x3d,
  0x4b, 0x4f, 0x9b, 0xbe, 0x37, 0x04, 0x5a, 0x3e, 0xc1, 0x7e, 0x9a, 0x3e,
  0x78, 0xb7, 0x0e, 0x3d, 0xe8, 0xf9, 0xe2, 0x3d, 0x37, 0x4f, 0x2f, 0xbe,
  0x40, 0xdf, 0x7a, 0xbe, 0x64, 0xb0, 0x8e, 0xbe, 0xae, 0x8f, 0x1a, 0x3e,
  0x03, 0x0c, 0x7d, 0xbe, 0x4f, 0xb0, 0x9e, 0xbe, 0xfc, 0x33, 0x2c, 0x3e,
  0x0f, 0x83, 0xe8, 0xbe, 0xc8, 0x51, 0x6d, 0xbf, 0xb8, 0x37, 0x19, 0x39,
  0xf3, 0x1d, 0xd5, 0xbe, 0x04, 0x5c, 0xd3, 0xbe, 0x6d, 0x3a, 0x2d, 0x3e,
  0x11, 0x1e, 0xa7, 0x3d, 0xd8, 0xa7, 0x42, 0x3c, 0x1a, 0x2b, 0x2c, 0xbd,
  0x46, 0x55, 0x26, 0xbe, 0x21, 0x5f, 0x7b, 0xbe, 0x0d, 0xc8, 0x63, 0xbe,
  0x34, 0xa8, 0x72, 0x3e, 0xf5, 0x8d, 0xee, 0xbe, 0xdf, 0xf1, 0xe0, 0xbd,
  0x16, 0xa9, 0x3d, 0x3e, 0x48, 0x0f, 0xa9, 0xbe, 0x5b, 0x46, 0x6a, 0xbf,
  0x43, 0x37, 0x38, 0xbe, 0xd5, 0x4d, 0x49, 0xbf, 0x6f, 0xa6, 0xa3, 0xbe,
  0x03, 0x3b, 0x44, 0x3e, 0xe7, 0xc3, 0xfc, 0x3d, 0x35, 0x0e, 0xa2, 0x3d,
  0x29, 0x47, 0x1b, 0x3d, 0x5e, 0x6a, 0xe9, 0xbe, 0x5a, 0x8b, 0x59, 0xbe,
  0x12, 0xdc, 0x82, 0xbe, 0xc1, 0x71, 0x78, 0x3e, 0x29, 0x5a, 0x84, 0xbe,
  0x9e, 0x55, 0x14, 0x3e, 0xb5, 0xea, 0x6d, 0x3d, 0x5a, 0xd7, 0x0d, 0xbd,
  0xac, 0x6f, 0x5c, 0xbe, 0xdf, 0x95, 0x67, 0x3e, 0xe9, 0xd5, 0x6c, 0x3e,
  0x77, 0x7e, 0x5f, 0xbc, 0x83, 0xde, 0x83, 0xbe, 0x79, 0xcc, 0xd7, 0xbe,
  0x63, 0x5d, 0x83, 0x3e, 0xef, 0x8e, 0x0a, 0x3e, 0x1a, 0xb3, 0x1e, 0xbe,
  0x63, 0xe9, 0x8c, 0xbd, 0x31, 0x07, 0xaf, 0x3e, 0xfe, 0x5c, 0x17, 0xbe,
  0x4c, 0xf8, 0xb7, 0x3d, 0x4c, 0x4a, 0xb9, 0x3e, 0xa2, 0x85, 0x36, 0x3e,
  0x51, 0x6b, 0x38, 0xbe, 0x15, 0x91, 0x07, 0xbe, 0xd4, 0xdf, 0x05, 0x3d,
  0x73, 0x49, 0x90, 0x3e, 0xf1, 0x32, 0xd1, 0xbe, 0x2e, 0xd1, 0x5e, 0x3c,
  0x0b, 0x13, 0x39, 0xbe, 0x52, 0x11, 0x4e, 0x3e, 0x77, 0xc8, 0xf3, 0x3d,
  0x26, 0x85, 0xfe, 0xbd, 0xa2, 0x96, 0x81, 0xbd, 0xeb, 0x58, 0x26, 0x3e,
  0xd4, 0xf5, 0x78, 0xbe, 0xfe, 0xec, 0x39, 0xbb, 0xf8, 0x1b, 0x5c, 0x3e,
  0x24, 0x9e, 0xa5, 0x3d, 0x50, 0xd6, 0x34, 0xbc, 0x4d, 0x0e, 0x6b, 0xbd,
  0xce, 0xf6, 0x86, 0x3e, 0x45, 0x82, 0xe8, 0x3c, 0x50, 0xba, 0xff, 0xbe,
  0x5c, 0xdc, 0x3c, 0xbe, 0x21, 0x5e, 0x63, 0xbe, 0xef, 0x06, 0x9a, 0x3e,
  0x9b, 0x2a, 0x7d, 0x3e, 0xca, 0x67, 0xb6, 0x3c, 0x21, 0xd6, 0x5a, 0xbe,
  0x40, 0x4e, 0x3b, 0x3e, 0xd4, 0x94, 0xfe, 0xbe, 0xa0, 0x8a, 0x30, 0xbc,
  0x1f, 0x72, 0x4b, 0x3e, 0x60, 0x26, 0x91, 0x3b, 0xa6, 0x49, 0x56, 0xbd,
  0x44, 0x25, 0x5d, 0x3b, 0x46, 0x48, 0x51, 0x3e, 0xd4, 0x09, 0xbe, 0x3c,
  0xb3, 0x2e, 0xf1, 0xbe, 0x1f, 0x3c, 0xfc, 0xbe, 0x74, 0x90, 0x18, 0xbe,
  0xbe, 0x83, 0x53, 0x3e, 0xc9, 0x27, 0x18, 0xbd, 0x91, 0xe1, 0x47, 0xbe,
  0xe9, 0x9a, 0xa3, 0xbe, 0xb3, 0x4f, 0xb5, 0x3d, 0x4d, 0xa7, 0x3c, 0xbf,
  0x1f, 0xdd, 0x8e, 0xbc, 0x9c, 0x7a, 0x43, 0x3e, 0xd5, 0x12, 0xf8, 0x3d,
  0xa1, 0x04, 0x0f, 0x3d, 0xa9, 0x5f, 0x47, 0x3d, 0xdb, 0x33, 0x82, 0x3e,
  0x38, 0xcc, 0x25, 0x3d, 0x33, 0xb5, 0x87, 0xbe, 0x36, 0xd2, 0x2d, 0xbf,
  0xaf, 0xf0, 0x2b, 0xbd, 0xcb, 0x71, 0x4d, 0x3e, 0x8d, 0x4f, 0xc9, 0x3e,
  0x75, 0x11, 0x88, 0xbe, 0x1c, 0xd6, 0xb1, 0xbe, 0x8e, 0x6f, 0x37, 0x3d,
  0xd5, 0x50, 0x93, 0xbe, 0x66, 0xcd, 0xcb, 0xbe, 0x71, 0x2b, 0x95, 0x3e,
  0x86, 0xb8, 0x34, 0x3e, 0xcd, 0x6c, 0x5a, 0xbe, 0xf7, 0xf1, 0xd5, 0x3d,
  0x6a, 0x0a, 0x52, 0x3e, 0x41, 0x00, 0xa5, 0x3d, 0x35, 0x81, 0x83, 0xbe,
  0xa0, 0x84, 0x1e, 0xbf, 0x9d, 0xd5, 0x81, 0xbe, 0x35, 0x96, 0x8c, 0x3e,
  0x00, 0xb7, 0x5a, 0x3e, 0xe8, 0xff, 0x8a, 0xbe, 0x88, 0x99, 0x17, 0xbe,
  0xbb, 0xee, 0xd4, 0x3d, 0x8b, 0x23, 0x28, 0xbf, 0xd8, 0x64, 0x68, 0xbe,
  0xfa, 0x63, 0x70, 0x3e, 0xca, 0x7c, 0xc6, 0x3d, 0x80, 0x24, 0x24, 0x3b,
  0x54, 0xba, 0xc7, 0xbd, 0x66, 0xc4, 0xce, 0x3e, 0xd4, 0x48, 0x85, 0x3d,
  0xd2, 0x4b, 0x46, 0xbe, 0x87, 0xb9, 0xad, 0xbe, 0xdd, 0x79, 0x09, 0x3e,
  0x2c, 0x1c, 0xea, 0x3e, 0x30, 0xce, 0x24, 0x3b, 0x7e, 0x6e, 0x23, 0xbe,
  0xdf, 0x72, 0x9f, 0xbd, 0xd1, 0x21, 0x1f, 0x3e, 0x57, 0xec, 0xff, 0xbe,
  0x26, 0x50, 0x58, 0xbe, 0x4b, 0xcd, 0x9f, 0x3e, 0x49, 0x41, 0xc4, 0x3d,
  0x1f, 0x92, 0x94, 0xbe, 0x5f, 0xf8, 0x05, 0xbd, 0x99, 0x68, 0xda, 0x3e,
  0x33, 0xa4, 0xb5, 0x3c, 0x92, 0x85, 0x2e, 0xbe, 0x9b, 0x70, 0xdd, 0xbe,
  0xa6, 0xd9, 0xb2, 0x3d, 0x49, 0xfa, 0xfe, 0x3d, 0x56, 0x37, 0x62, 0x3e,
  0x40, 0xb5, 0xb5, 0xbe, 0x19, 0xfa, 0x83, 0xbe, 0xd9, 0x0a, 0xa5, 0x3d,
  0x27, 0x76, 0xb7, 0xbe, 0xaf, 0xa0, 0x17, 0xbf, 0x2a, 0x61, 0xad, 0x3d,
  0x76, 0x53, 0xb7, 0xbd, 0xc4, 0xdb, 0x47, 0xbe, 0x9c, 0x25, 0x41, 0xbe,
  0x46, 0x2f, 0xe7, 0x3e, 0x77, 0x67, 0x99, 0x3e, 0xff, 0x40, 0x1e, 0xbe,
  0xfc, 0xec, 0x72, 0xbf, 0xfb, 0xd8, 0x4e, 0xbe, 0xb3, 0x8c, 0x94, 0x3e,
  0x1e, 0x57, 0x84, 0x3e, 0x45, 0x94, 0x2c, 0xbf, 0x94, 0xd3, 0xb9, 0x3d,
  0xec, 0xd4, 0x15, 0x3e, 0xd6, 0x38, 0xce, 0xbe, 0x8b, 0x13, 0x15, 0xbf,
  0x03, 0xad, 0x17, 0x3e, 0x63, 0x10, 0xbe, 0xbc, 0xef, 0xe8, 0x82, 0xbd,
  0xa1, 0xbb, 0x7c, 0xbd, 0x3b, 0x02, 0x95, 0x3e, 0xae, 0xc5, 0x55, 0x3e,
  0x59, 0x81, 0x1f, 0xbe, 0x01, 0x35, 0x29, 0xbf, 0x2d, 0xad, 0x06, 0xbe,
  0x12, 0x9d, 0x65, 0x3e, 0xa1, 0x72, 0xaf, 0x3d, 0x2a, 0x98, 0xb2, 0xbe,
  0xb8, 0x90, 0x16, 0xbd, 0xc4, 0x08, 0xbb, 0xbc, 0x0f, 0xd6, 0x19, 0xbf,
  0x3a, 0x49, 0x80, 0x3c, 0x0f, 0x36, 0xd9, 0x3d, 0x19, 0x57, 0xd7, 0x3d,
  0x18, 0xef, 0xe8, 0xbd, 0xf7, 0x06, 0xc3, 0x3e, 0xa2, 0x1d, 0x4c, 0x3e,
  0xe9, 0xfe, 0x6a, 0x3e, 0xc7, 0x1b, 0x20, 0xbd, 0xe1, 0x73, 0xe6, 0xbe,
  0x70, 0xdd, 0xba, 0xbe, 0xc8, 0x53, 0x21, 0x3e, 0x68, 0xb5, 0x9c, 0xbd,
  0xbe, 0x00, 0x24, 0xbe, 0x08, 0xc7, 0xe4, 0xbd, 0x2e, 0x63, 0x76, 0x3e,
  0x4c, 0x6d, 0x1a, 0xbf, 0x2c, 0x2c, 0x82, 0xbe, 0x63, 0x0b, 0x84, 0x3e,
  0x2c, 0xe4, 0xbe, 0xbc, 0xbd, 0xe9, 0x01, 0xbd, 0xbd, 0x59, 0x07, 0x3e,
  0x90, 0xf2, 0x64, 0x3e, 0x38, 0xac, 0x32, 0x3e, 0x67, 0xcf, 0x3e, 0xbe,
  0x68, 0xef, 0x2d, 0xbf, 0x8a, 0x22, 0x6a, 0xbe, 0xa7, 0xa9, 0xb2, 0x3e,
  0x32, 0x69, 0xe5, 0x3c, 0x5b, 0xcb, 0xba, 0xbe, 0xd8, 0x62, 0x31, 0xbe,
  0xd6, 0x49, 0x1d, 0x3d, 0x10, 0x21, 0xcf, 0xbe, 0x2d, 0x91, 0xa0, 0xbe,
  0x14, 0x8d, 0xe1, 0x3d, 0x66, 0x30, 0x00, 0x3e, 0x0d, 0x65, 0x6b, 0xbe,
  0x09, 0xdf, 0x81, 0x3d, 0xd5, 0x3b, 0x0d, 0xbe, 0xab, 0x7f, 0x96, 0x3e,
  0xc2, 0xd9, 0xf4, 0xbd, 0xfe, 0xfe, 0x0a, 0xbe, 0x97, 0xd1, 0x7e, 0xbe,
  0x99, 0x4b, 0x2d, 0x3e, 0xbe, 0xaa, 0x22, 0x3e, 0x8b, 0xda, 0x73, 0xbe,
  0x7b, 0x09, 0xf8, 0xbe, 0x4e, 0xb0, 0x98, 0x3e, 0xc3, 0xfc, 0x5f, 0xbe,
  0xdd, 0x90, 0x86, 0xbe, 0xf5, 0x55, 0x2a, 0x3e, 0x2c, 0xa2, 0x3e, 0xbf,
  0xd1, 0x1a, 0x57, 0xbe, 0x15, 0x97, 0x58, 0xbe, 0x49, 0x56, 0xd4, 0x3d,
  0xd1, 0x5b, 0xe7, 0xbb, 0xc6, 0x19, 0x34, 0xbe, 0x82, 0x51, 0x0b, 0xbf,
  0xf7, 0xbb, 0xf4, 0x3d, 0xfb, 0x9c, 0xb7, 0x3d, 0x37, 0x7c, 0xcc, 0xbd,
  0xd8, 0x37, 0x5f, 0xbe, 0x71, 0x19, 0x7b, 0xbe, 0xa7, 0x08, 0x29, 0xbe,
  0xa8, 0x06, 0x0f, 0xbe, 0x5c, 0x9a, 0x17, 0xbe, 0x86, 0xd1, 0xba, 0xbd,
  0xc5, 0x30, 0x3d, 0xbe, 0x3d, 0x29, 0x24, 0xbf, 0xb3, 0x9a, 0x0a, 0xbf,
  0x4a, 0x4b, 0xd2, 0xbc, 0x2a, 0x07, 0x00, 0xbe, 0x97, 0x60, 0x58, 0x3d,
  0x3b, 0xc1, 0x78, 0xbe, 0xdb, 0xc3, 0x16, 0x3e, 0xde, 0xcf, 0xa7, 0xbd,
  0x1a, 0xe7, 0x86, 0x3e, 0x13, 0xa6, 0xd1, 0xbe, 0xea, 0xfb, 0x80, 0xbe,
  0x07, 0x68, 0x51, 0xbd, 0x93, 0x1e, 0x91, 0x3e, 0xf4, 0x91, 0x8f, 0x3d,
  0xec, 0x37, 0x56, 0xbe, 0x95, 0x1a, 0x9b, 0xbd, 0x68, 0xfc, 0x43, 0xbf,
  0xa4, 0x20, 0xee, 0xbe, 0x72, 0x0f, 0xdf, 0x3d, 0x4c, 0xe3, 0x8a, 0xb9,
  0x2b, 0x1e, 0xd2, 0x3d, 0xd9, 0x83, 0xce, 0xbd, 0x6a, 0x38, 0x99, 0x3e,
  0x83, 0xb7, 0xcb, 0xbd, 0xef, 0x13, 0x82, 0x3e, 0x41, 0xe1, 0xa7, 0xbe,
  0x63, 0xc6, 0x85, 0xbe, 0xd5, 0xa5, 0x5f, 0xbd, 0x78, 0x7d, 0xad, 0x3e,
  0xdd, 0x4f, 0x20, 0xbe, 0x5e, 0xed, 0x4a, 0xbe, 0x58, 0xfb, 0xe7, 0xbd,
  0xb4, 0x28, 0xbd, 0xbe, 0x6a, 0x40, 0xab, 0xbe, 0xa0, 0x37, 0x44, 0x3d,
  0x12, 0x0a, 0x35, 0xbe, 0xfe, 0x76, 0xb4, 0x3d, 0x84, 0x48, 0x42, 0x3e,
  0xba, 0x28, 0x02, 0x3d, 0x3b, 0x92, 0xc1, 0xbd, 0x0b, 0x36, 0xb2, 0x3e,
  0xf0, 0xc2, 0x08, 0x3e, 0xe9, 0xe8, 0x8f, 0xbe, 0x70, 0xc1, 0x9e, 0xbe,
  0xa5, 0x1c, 0x26, 0x3e, 0x2e, 0x89, 0xc6, 0xbc, 0x1a, 0x71, 0xe1, 0x3d,
  0x32, 0x19, 0x3e, 0x3d, 0xbf, 0xa9, 0x33, 0xbd, 0x39, 0x09, 0x3e, 0xbf,
  0x3e, 0x78, 0x0e, 0xbe, 0x41, 0xd1, 0x0d, 0xbf, 0x7a, 0x90, 0xf9, 0x3d,
  0x29, 0x40, 0x80, 0x3e, 0x21, 0x9c, 0x6c, 0x3e, 0x33, 0xcb, 0x16, 0xbf,
  0x82, 0x48, 0x3a, 0x3e, 0x0b, 0xf4, 0xc0, 0x3e, 0x5f, 0xe6, 0x3f, 0xbe,
  0x77, 0x08, 0xcb, 0xbe, 0x75, 0x1a, 0x5d, 0x3e, 0xfb, 0x64, 0x08, 0xbe,
  0x47, 0x47, 0xbd, 0x3d, 0xa3, 0x93, 0x68, 0xbd, 0x55, 0xf8, 0x24, 0x3d,
  0x4c, 0xea, 0x88, 0xbf, 0x18, 0x7f, 0x98, 0xbd, 0xee, 0x4b, 0x10, 0xbf,
  0x48, 0xdc, 0x3e, 0x3e, 0xd4, 0x7d, 0xac, 0x3d, 0x94, 0xa5, 0xb5, 0x3e,
  0xee, 0xbe, 0x2f, 0xbf, 0x2b, 0x8c, 0x0b, 0xbd, 0xb5, 0xb8, 0x9f, 0x3e,
  0xa5, 0x0e, 0x52, 0xbe, 0x60, 0xf3, 0x34, 0xbe, 0xb5, 0x6c, 0xae, 0x3d,
  0xcb, 0x61, 0xc3, 0x3d, 0x71, 0x54, 0xb3, 0x3d, 0xae, 0xf5, 0xdb, 0x3d,
  0xce, 0x6b, 0x06, 0x3e, 0xac, 0x59, 0x26, 0xbf, 0xa0, 0x14, 0x26, 0xbe,
  0xdd, 0x7b, 0x0b, 0xbf, 0x30, 0xc2, 0xce, 0x3d, 0x82, 0x9f, 0x66, 0x3d,
  0xf3, 0x5c, 0xf7, 0xbe, 0x94, 0x3c, 0x16, 0xbf, 0x18, 0xe0, 0x8d, 0x3e,
  0x71, 0x2f, 0x34, 0x3e, 0x58, 0x34, 0x32, 0xbd, 0x7b, 0xf6, 0x70, 0xbe,
  0x35, 0x6a, 0x10, 0x3e, 0xc3, 0x5d, 0x82, 0x3e, 0x9f, 0x31, 0x73, 0x3d,
  0xa5, 0x1c, 0xbd, 0x3c, 0xd1, 0xff, 0x7e, 0x3e, 0xc1, 0x50, 0x00, 0xbe,
  0x7e, 0x7e, 0xee, 0xbe, 0x35, 0xad, 0xfb, 0xbe, 0x1e, 0x82, 0xae, 0x3e,
  0xc1, 0x84, 0x11, 0x3e, 0x21, 0xcd, 0x8c, 0xbc, 0x62, 0x46, 0xd7, 0xbe,
  0x5b, 0xa2, 0x6e, 0xbd, 0xe4, 0xb4, 0x67, 0x3e, 0x54, 0x59, 0x79, 0x3d,
  0x0a, 0xf2, 0xb4, 0x3d, 0x09, 0x12, 0x3c, 0x3e, 0x57, 0x8b, 0x09, 0x3e,
  0x47, 0x71, 0x1f, 0x3e, 0x93, 0x00, 0x38, 0xbe, 0x96, 0x28, 0xdf, 0x3d,
  0x1f, 0x35, 0xb2, 0xbe, 0x2c, 0x25, 0x4a, 0xbe, 0x3e, 0x47, 0x15, 0xbf,
  0x00, 0xaa, 0x90, 0x3e, 0x07, 0x88, 0x67, 0x3e, 0x61, 0x66, 0xad, 0x3d,
  0x38, 0x2b, 0xdc, 0xbe, 0x4f, 0xcf, 0x0a, 0xbf, 0xb1, 0x90, 0x30, 0x3e,
  0xae, 0xc6, 0x8a, 0x3b, 0xc1, 0xac, 0xa7, 0xbd, 0x73, 0x44, 0xaa, 0x3d,
  0x05, 0x64, 0x09, 0x3e, 0x47, 0x11, 0x1d, 0xbd, 0xb0, 0x6d, 0xbd, 0xbe,
  0xf6, 0x7c, 0x6d, 0x3e, 0x84, 0xf4, 0x89, 0xbd, 0x1f, 0xfe, 0x20, 0xbd,
  0xe1, 0x04, 0xcb, 0xbe, 0x90, 0xbb, 0x10, 0xbd, 0x5c, 0xac, 0x81, 0x3e,
  0xa5, 0xe8, 0x91, 0x3e, 0x22, 0x73, 0x7a, 0x3d, 0x5b, 0x8d, 0x0b, 0xbf,
  0x99, 0xb1, 0x57, 0x3e, 0xee, 0xc3, 0x10, 0xbd, 0xee, 0x73, 0x81, 0xbe,
  0xa1, 0x85, 0x1f, 0x3e, 0xe4, 0x32, 0x3d, 0x3e, 0xf6, 0x49, 0xab, 0x3d,
  0x8f, 0x49, 0x04, 0xbf, 0x76, 0xa6, 0xa2, 0x3d, 0x47, 0xaa, 0xe2, 0xbd,
  0xe9, 0xd9, 0x2d, 0x3e, 0x58, 0xaa, 0xa2, 0xbd, 0x99, 0xe3, 0xd1, 0xbe,
  0x33, 0x60, 0x85, 0x3d, 0x71, 0x5a, 0x81, 0x3e, 0x64, 0x28, 0x54, 0xbd,
  0xc7, 0x8e, 0x9f, 0xbe, 0x16, 0x45, 0x84, 0x3d, 0x17, 0xa4, 0x96, 0x3e,
  0x04, 0xe9, 0x88, 0xbe, 0x92, 0x01, 0x57, 0xbe, 0xab, 0xe8, 0x8e, 0x3e,
  0x59, 0x69, 0x37, 0xbd, 0x92, 0x73, 0x45, 0xbf, 0x2c, 0x37, 0x3f, 0x3e,
  0xe6, 0xaa, 0x40, 0xbe, 0xc0, 0x36, 0x2d, 0x3e, 0x0d, 0x83, 0x9e, 0x3d,
  0x23, 0x4d, 0xc0, 0xbe, 0xa0, 0xe1, 0x96, 0x3e, 0x17, 0xf7, 0x51, 0x3e,
  0xa8, 0xfc, 0xca, 0x3c, 0x89, 0x7d, 0x50, 0xbe, 0xc9, 0x50, 0x85, 0x3e,
  0xc6, 0xce, 0xce, 0xbd, 0xfa, 0xc8, 0x3d, 0xbd, 0x57, 0xa1, 0xcd, 0xbe,
  0xdf, 0x8b, 0x77, 0x3e, 0x1c, 0x79, 0xd1, 0x3d, 0x12, 0xe0, 0x2d, 0xbf,
  0xab, 0x99, 0x64, 0x3d, 0x0f, 0x9d, 0xa0, 0xbe, 0x49, 0x99, 0xf0, 0x3e,
  0xd3, 0xd3, 0x00, 0x3e, 0xf8, 0x29, 0xe5, 0xbe, 0x51, 0x4d, 0x18, 0xbe,
  0x74, 0x96, 0x0d, 0x3e, 0x1e, 0x7f, 0x32, 0xbe, 0xf8, 0x57, 0xea, 0xbd,
  0x05, 0xd5, 0xac, 0x3e, 0xcd, 0xc6, 0xd9, 0x3e, 0xbb, 0xc4, 0xa2, 0xbe,
  0x07, 0x56, 0x4c, 0xbf, 0x38, 0x47, 0xed, 0x3e, 0xa1, 0x65, 0x18, 0xbe,
  0xc7, 0x7b, 0xed, 0xbd, 0xb3, 0xef, 0x00, 0xbf, 0x6a, 0x57, 0xe8, 0xbd,
  0x98, 0x13, 0x45, 0xbc, 0xe7, 0x52, 0x2a, 0xbe, 0xd6, 0xe8, 0xd0, 0xbe,
  0xbe, 0xba, 0x13, 0xbf, 0xf8, 0x53, 0x1c, 0x3e, 0x3e, 0x4e, 0x8d, 0x3b,
  0xf0, 0x39, 0x45, 0x3e, 0xe7, 0xe7, 0x45, 0xbe, 0xc2, 0xac, 0xc8, 0xbd,
  0xca, 0x77, 0xfb, 0x3a, 0x81, 0x82, 0x8a, 0xbe, 0xf9, 0x0f, 0x2c, 0xbf,
  0xc3, 0x8c, 0x96, 0xbe, 0x3b, 0x29, 0x1d, 0x3e, 0x33, 0xf0, 0x86, 0xbf,
  0x45, 0xc2, 0x4f, 0x3e, 0xb3, 0x53, 0xd6, 0xbd, 0xc9, 0xde, 0x38, 0x3d,
  0x0b, 0x4a, 0xec, 0xbe, 0x6c, 0x58, 0xc3, 0xbe, 0x78, 0xbf, 0x18, 0x3e,
  0x27, 0xdf, 0xc8, 0xbd, 0xd6, 0xa0, 0x56, 0xbe, 0x23, 0xb8, 0xab, 0xbe,
  0xfd, 0x4d, 0x88, 0xbe, 0x28, 0x48, 0xaa, 0xbd, 0x25, 0x92, 0x0e, 0xbf,
  0xcb, 0x34, 0x5b, 0xbf, 0x2f, 0xc6, 0xb6, 0xbe, 0x0e, 0x70, 0x17, 0xbd,
  0x1e, 0x0c, 0xfb, 0xbd, 0xf1, 0x7a, 0xc4, 0x3e, 0x26, 0xea, 0xeb, 0xbd,
  0x14, 0x77, 0x26, 0x3e, 0x25, 0x8d, 0x9a, 0xbe, 0x4e, 0x59, 0x03, 0xbe,
  0x0c, 0xdd, 0xaf, 0x3d, 0xb0, 0x00, 0x13, 0xbd, 0x8d, 0xf7, 0x03, 0xbf,
  0x29, 0xab, 0x3c, 0x3c, 0xc1, 0xfc, 0x9b, 0xbe, 0x9a, 0xba, 0x39, 0xbe,
  0x35, 0xcf, 0x0d, 0xbf, 0xa8, 0x0d, 0x0f, 0xbf, 0x8a, 0x43, 0xf8, 0xbe,
  0x9a, 0xc3, 0xfc, 0xbe, 0x3b, 0x90, 0x98, 0xbd, 0x44, 0xee, 0xcd, 0x3d,
  0x43, 0x89, 0x14, 0xbd, 0xbf, 0x37, 0x0b, 0x3e, 0xab, 0xc5, 0x22, 0xbf,
  0xf6, 0xad, 0xc8, 0x3e, 0xca, 0x2f, 0x9f, 0x3d, 0x45, 0x8b, 0xa5, 0xbd,
  0x29, 0x84, 0xed, 0xbe, 0x79, 0xb3, 0x0f, 0x3f, 0xbb, 0x56, 0xe7, 0xbe,
  0x3b, 0xb0, 0xb7, 0xbe, 0xd2, 0xb4, 0x14, 0xbf, 0xc1, 0x73, 0xcb, 0xbd,
  0xe2, 0x21, 0x9a, 0x3c, 0x48, 0x56, 0xa8, 0xbe, 0xf6, 0xb0, 0x8a, 0xbd,
  0xb4, 0x72, 0x3c, 0x3e, 0x64, 0x79, 0x43, 0x3d, 0x01, 0xd2, 0x40, 0x3e,
  0xd0, 0xf5, 0x12, 0xbf, 0xe9, 0x2d, 0x94, 0x3e, 0x80, 0x3b, 0x57, 0x3e,
  0xdd, 0xac, 0x66, 0x3d, 0xd5, 0xa1, 0xe2, 0xbc, 0xfb, 0x15, 0xd4, 0x3e,
  0x2b, 0x15, 0xdd, 0xbe, 0xba, 0x2d, 0x65, 0xbe, 0x2c, 0x26, 0x9d, 0xbe,
  0x66, 0xc3, 0x0b, 0x3e, 0xd1, 0xc4, 0x3f, 0x3e, 0x56, 0x0a, 0x3b, 0xbf,
  0xde, 0x07, 0x06, 0x3e, 0x0e, 0x95, 0x0a, 0x3e, 0xd7, 0x16, 0x2a, 0xbe,
  0x33, 0x3c, 0xea, 0x3d, 0x16, 0x1c, 0xd5, 0xbe, 0x63, 0x76, 0x65, 0x3e,
  0x1d, 0xbb, 0x44, 0x3e, 0x33, 0xe9, 0x4b, 0xbc, 0xda, 0x8b, 0xa1, 0xbe,
  0x79, 0xce, 0xd3, 0x3e, 0xba, 0xe2, 0xe3, 0xbd, 0xe5, 0xf4, 0x00, 0xbe,
  0xb4, 0x9b, 0xa5, 0xbe, 0xe8, 0x59, 0xe7, 0x3d, 0x73, 0x58, 0xac, 0x3c,
  0x7e, 0x93, 0x36, 0xbf, 0xc8, 0x57, 0xc2, 0x3d, 0x52, 0xc1, 0x3a, 0x3e,
  0xb9, 0x8f, 0x2f, 0xbe, 0xc0, 0xf4, 0x08, 0x3e, 0x32, 0xa4, 0x35, 0xbf,
  0x2f, 0x7f, 0x47, 0x3e, 0x7e, 0x24, 0x33, 0x3e, 0x14, 0xa0, 0x1b, 0xbd,
  0x6d, 0x98, 0xc8, 0xbe, 0xa6, 0xdb, 0xad, 0x3e, 0x0b, 0x2a, 0xd5, 0x3d,
  0x51, 0x04, 0xe6, 0xbe, 0x32, 0x97, 0xa8, 0xbe, 0x8d, 0xce, 0x76, 0x3e,
  0x48, 0xd1, 0x78, 0x3e, 0x1d, 0xa9, 0x78, 0xbe, 0x62, 0xb7, 0x5c, 0x3e,
  0x67, 0x1f, 0xb1, 0x3e, 0x0b, 0x29, 0x16, 0xbf, 0xd6, 0xf9, 0x00, 0x3c,
  0x10, 0x53, 0x24, 0xbf, 0x6b, 0x97, 0x80, 0x3e, 0x07, 0x19, 0x29, 0xbe,
  0x34, 0x38, 0xd2, 0xbc, 0xf8, 0x70, 0x96, 0xbe, 0x12, 0x44, 0x94, 0x3e,
  0xa3, 0xb0, 0xc5, 0xbe, 0x24, 0x8d, 0x96, 0x3c, 0x5c, 0x42, 0xc2, 0xbd,
  0x7e, 0x3b, 0x05, 0x3e, 0x9b, 0xd9, 0xc0, 0x3d, 0xf4, 0x69, 0xfc, 0xbd,
  0xbb, 0xb2, 0x4b, 0x3e, 0x7d, 0xb5, 0x3e, 0x3d, 0x84, 0x72, 0x86, 0xbe,
  0x3b, 0x38, 0x0e, 0xbe, 0x6c, 0x5c, 0x16, 0xbf, 0xa5, 0x9b, 0x95, 0x3e,
  0x9f, 0x43, 0x5b, 0x3e, 0x88, 0xe7, 0x0f, 0x3e, 0x09, 0x6a, 0xa4, 0xbe,
  0x1f, 0x44, 0x25, 0x3e, 0xc4, 0x75, 0x0b, 0x3e, 0x87, 0x08, 0xaa, 0xbc,
  0xfb, 0x63, 0xe9, 0xbe, 0x26, 0x9c, 0x78, 0x3e, 0xcb, 0x52, 0xad, 0x3d,
  0xf2, 0xd7, 0x37, 0x3b, 0xaf, 0xb8, 0x1c, 0x3e, 0xc6, 0x19, 0xce, 0x3d,
  0xb3, 0x86, 0x36, 0x3e, 0x74, 0xc4, 0x1b, 0xbe, 0x0d, 0x1c, 0x05, 0xbf,
  0x70, 0xff, 0x61, 0x3e, 0x68, 0x17, 0x9f, 0x3e, 0xdd, 0xe5, 0xcb, 0xbd,
  0x13, 0xf9, 0x11, 0xbe, 0x90, 0xd4, 0x26, 0x3e, 0x06, 0x2e, 0xe0, 0x3d,
  0x9d, 0xb2, 0x80, 0xbe, 0x41, 0xf8, 0x93, 0xbe, 0x50, 0xf7, 0x80, 0x3e,
  0xe6, 0xaf, 0x25, 0x3e, 0xcd, 0x01, 0xb0, 0x3d, 0xcc, 0xdd, 0xee, 0x3d,
  0x18, 0xf3, 0x11, 0xbf, 0x18, 0x88, 0xef, 0x3d, 0x96, 0xd0, 0xc8, 0xbe,
  0x3d, 0xa0, 0xa3, 0xbe, 0xcf, 0x88, 0x21, 0x3e, 0x6f, 0xaa, 0x45, 0x3e,
  0x76, 0x3c, 0x72, 0xbc, 0x71, 0x29, 0x7b, 0xbd, 0x83, 0x4d, 0x9e, 0x3e,
  0xcf, 0x81, 0xb0, 0x3d, 0x45, 0xa6, 0xf9, 0x3d, 0xb6, 0x74, 0x4c, 0xbb,
  0xf8, 0x83, 0x06, 0x3e, 0x33, 0xa6, 0xe2, 0xbd, 0xc8, 0xcc, 0x36, 0x3d,
  0x86, 0x2d, 0x5d, 0x3e, 0x6b, 0x47, 0x7c, 0xbe, 0x25, 0x72, 0xb7, 0xbb,
  0x57, 0x59, 0xca, 0xbe, 0xe6, 0x70, 0xc5, 0xbe, 0x75, 0xe9, 0x5a, 0x3e,
  0x80, 0x11, 0x45, 0x3d, 0x4c, 0xc3, 0xde, 0xbd, 0xc1, 0xe1, 0xf6, 0xbd,
  0x81, 0xc2, 0x30, 0x3e, 0x95, 0xd6, 0xba, 0x3d, 0xd6, 0xa1, 0x50, 0xbe,
  0x5c, 0x2a, 0x0a, 0xbf, 0x23, 0x4e, 0x92, 0x3e, 0x76, 0x35, 0x09, 0xbd,
  0x00, 0xce, 0x4f, 0xb9, 0x16, 0x2a, 0x4d, 0x3e, 0x00, 0x1b, 0x0f, 0x3e,
  0x89, 0x0c, 0x39, 0x3d, 0x59, 0xc9, 0x1f, 0xbc, 0x28, 0xe3, 0x53, 0xbe,
  0x6b, 0x67, 0xba, 0xb9, 0x51, 0x0b, 0xbc, 0x3d, 0x21, 0x0f, 0xf7, 0xbd,
  0x4e, 0x7e, 0x1a, 0x3e, 0xc4, 0x0a, 0xa5, 0x3c, 0x1a, 0xe7, 0xfd, 0xbb,
  0x32, 0xc3, 0x31, 0xbf, 0x1c, 0x2a, 0xf0, 0xbe, 0x34, 0x89, 0x79, 0x3e,
  0xe7, 0xc6, 0x0d, 0xbe, 0x5e, 0x06, 0x8c, 0x3c, 0x5c, 0x31, 0x3a, 0xbf,
  0x51, 0xcc, 0x40, 0xbe, 0x7b, 0x61, 0x90, 0x3d, 0x8c, 0x95, 0xc1, 0xbe,
  0xba, 0xf6, 0x3b, 0x3e, 0x56, 0x78, 0xeb, 0xbe, 0xd5, 0x80, 0x86, 0x3e,
  0xae, 0x8d, 0x81, 0x3d, 0x74, 0xba, 0x69, 0xbe, 0xa4, 0xad, 0x6f, 0x3e,
  0x44, 0xd6, 0x3f, 0x3e, 0x54, 0x9c, 0x23, 0xbe, 0x6e, 0x30, 0x6e, 0xbe,
  0x49, 0x70, 0xd4, 0xbe, 0x07, 0x5f, 0xa6, 0x3e, 0xb4, 0x9a, 0x68, 0xbd,
  0x24, 0x4b, 0x1f, 0xbf, 0xb5, 0x56, 0xfa, 0xbe, 0x06, 0x37, 0xa8, 0x3c,
  0x53, 0xc4, 0x7b, 0xbe, 0x81, 0xa5, 0x00, 0x3e, 0x1e, 0xb5, 0xd7, 0xbe,
  0x94, 0x9a, 0x5d, 0x3e, 0x91, 0x81, 0x8a, 0x3b, 0x5f, 0xf7, 0x58, 0xbe,
  0x7a, 0xc5, 0x1b, 0xbd, 0xcd, 0x4a, 0xd4, 0x3e, 0x5c, 0x08, 0xad, 0x3d,
  0x96, 0xef, 0x3f, 0x3e, 0x7a, 0x39, 0xf1, 0xbe, 0xab, 0xa2, 0x5f, 0x3e,
  0x39, 0x09, 0x9d, 0xbd, 0xef, 0xb4, 0x2a, 0xbf, 0x48, 0x97, 0x77, 0xbe,
  0x80, 0x42, 0x49, 0xbd, 0x2b, 0xfc, 0x00, 0xbe, 0x48, 0x43, 0x69, 0x3e,
  0x3c, 0xa9, 0xc9, 0xbd, 0x2f, 0x9b, 0x64, 0x3e, 0x67, 0x3f, 0x7e, 0x3d,
  0xa2, 0x81, 0x72, 0xbe, 0xab, 0x4a, 0x90, 0xbd, 0x86, 0x62, 0xae, 0x3e,
  0xae, 0xaa, 0x7e, 0x3e, 0xe9, 0x65, 0x4d, 0x3d, 0xcd, 0x00, 0xe9, 0xbe,
  0x5b, 0x64, 0xa4, 0x3e, 0x74, 0x09, 0xc7, 0xbd, 0x29, 0xf3, 0x0c, 0xbf,
  0x30, 0x1a, 0x26, 0xbe, 0x96, 0xaa, 0x8b, 0xbc, 0x26, 0xb8, 0xcc, 0xbd,
  0xfa, 0x47, 0x43, 0x3e, 0x3b, 0x06, 0x4e, 0x3e, 0x96, 0x86, 0x48, 0x3e,
  0x59, 0x21, 0x03, 0x3e, 0x74, 0xae, 0x8a, 0xbd, 0x38, 0x68, 0x94, 0xbe,
  0x8d, 0x69, 0xb5, 0x3e, 0x18, 0xb8, 0xec, 0x3d, 0xf5, 0xb3, 0xd5, 0x3d,
  0x52, 0xf4, 0xd1, 0xbe, 0x97, 0x43, 0x52, 0x3e, 0x7e, 0x2d, 0x26, 0xbc,
  0x92, 0xcf, 0xfb, 0xbe, 0xec, 0xf1, 0xb6, 0xbe, 0x39, 0x44, 0x64, 0xbd,
  0x07, 0xd0, 0x25, 0x3e, 0x58, 0xd6, 0x07, 0x3e, 0x2a, 0x59, 0x84, 0x3e,
  0xaa, 0x97, 0xdf, 0x3e, 0x39, 0x94, 0xf3, 0xbd, 0xe9, 0x8b, 0x75, 0xbe,
  0xb2, 0xaa, 0x78, 0xbe, 0xd3, 0x42, 0xed, 0x3e, 0x34, 0x22, 0xac, 0x3c,
  0x37, 0xc8, 0x56, 0x3e, 0xd4, 0xd7, 0xe0, 0xbe, 0x21, 0x23, 0x96, 0x3d,
  0x98, 0xc6, 0x67, 0x3d, 0x9f, 0xf8, 0x45, 0xbf, 0xf0, 0xf2, 0xb4, 0xbe,
  0x0e, 0x6a, 0x81, 0xbd, 0x36, 0xb3, 0x16, 0x3e, 0x5b, 0xb0, 0x19, 0x3e,
  0x22, 0xef, 0x9f, 0x3e, 0xbf, 0x43, 0x16, 0x3f, 0x86, 0x24, 0x14, 0x3c,
  0x44, 0x04, 0xb5, 0xbd, 0x43, 0x69, 0xc2, 0xbe, 0xbf, 0xe3, 0xb1, 0x3e,
  0xfa, 0xd3, 0x70, 0xbd, 0x6c, 0x38, 0x8a, 0x3e, 0xb8, 0xa5, 0xce, 0xbe,
  0x99, 0xaa, 0xad, 0xbe, 0xbb, 0x0d, 0x9f, 0xbc, 0xc2, 0x4f, 0x40, 0xbf,
  0x28, 0x19, 0xa2, 0xbe, 0x77, 0x35, 0x0b, 0xbe, 0x73, 0x3c, 0x24, 0x3e,
  0x82, 0xa9, 0x81, 0x3e, 0xdf, 0xc7, 0xaa, 0x3e, 0x1a, 0x9a, 0x10, 0x3f,
  0x7d, 0x73, 0xae, 0xbd, 0x3c, 0xfe, 0x66, 0xbe, 0x2d, 0xc4, 0x78, 0xbe,
  0x1c, 0x5e, 0xed, 0x3c, 0x7e, 0x68, 0x33, 0x3e, 0xff, 0xbb, 0x7d, 0x3e,
  0xee, 0x09, 0xb7, 0xbe, 0xe7, 0x66, 0x1c, 0xbe, 0x5b, 0xb2, 0x9d, 0x3d,
  0x2f, 0xb3, 0x22, 0xbf, 0xdb, 0x14, 0x24, 0xbe, 0x7b, 0x6a, 0x32, 0x3c,
  0x31, 0xee, 0x75, 0x3e, 0x1c, 0x7c, 0x22, 0x3e, 0x63, 0x20, 0x49, 0x3e,
  0x9a, 0x8f, 0x97, 0x3e, 0xb3, 0xc5, 0x1c, 0xbe, 0xe6, 0x96, 0xb5, 0xbe,
  0xcb, 0x8c, 0x65, 0xbe, 0xb8, 0x83, 0xe1, 0x3e, 0x6d, 0x48, 0x13, 0x3d,
  0x0e, 0xe8, 0xf8, 0x3d, 0xdc, 0xd8, 0x4c, 0xbe, 0x07, 0x76, 0xc8, 0xbe,
  0xb6, 0x6b, 0x01, 0xbd, 0x57, 0x7e, 0x1f, 0xbf, 0x12, 0x7a, 0xd7, 0xbe,
  0x8c, 0x9e, 0x07, 0x3e, 0xcb, 0xf7, 0xb3, 0x3d, 0x77, 0x3d, 0x68, 0x3e,
  0xde, 0x31, 0x85, 0x3e, 0x64, 0x91, 0x1c, 0x3e, 0x99, 0xe5, 0x87, 0xbe,
  0xb9, 0xef, 0xfc, 0xbd, 0x86, 0xb9, 0xce, 0xbe, 0x54, 0x9c, 0x03, 0xbf,
  0x35, 0xcd, 0xd6, 0x3d, 0x02, 0x5c, 0x51, 0x3e, 0xe4, 0x8e, 0xc2, 0xbe,
  0x4a, 0xf6, 0x87, 0xbe, 0x4a, 0xb8, 0x0b, 0xbd, 0x78, 0x54, 0x6e, 0xbf,
  0x6c, 0x77, 0xe3, 0xbe, 0x8d, 0x1a, 0x7b, 0x3d, 0x63, 0xad, 0x1c, 0x3e,
  0x10, 0x74, 0x35, 0x3e, 0xa5, 0xb4, 0x38, 0x3e, 0xe6, 0x77, 0x04, 0x3e,
  0x73, 0xa0, 0x8e, 0xbd, 0x70, 0xd7, 0x27, 0x3d, 0xf9, 0xa1, 0x08, 0xbf,
  0x0a, 0x64, 0xa0, 0xbe, 0x98, 0x8f, 0x6b, 0xbe, 0x27, 0x64, 0x3c, 0x3e,
  0x1c, 0xfa, 0x8a, 0xbe, 0x55, 0x97, 0x10, 0xbd, 0x93, 0x31, 0x1c, 0x3d,
  0xfd, 0x54, 0x83, 0xbf, 0x6e, 0x35, 0xa2, 0xbe, 0xe7, 0xe1, 0x08, 0x3d,
  0x0a, 0x23, 0x77, 0xbe, 0x30, 0x78, 0x3f, 0x3e, 0x0c, 0x39, 0x90, 0x3d,
  0x8b, 0x29, 0x6a, 0x3e, 0x12, 0xfc, 0x1c, 0x3d, 0xce, 0x9b, 0x53, 0x3d,
  0x57, 0x34, 0xc5, 0xbe, 0x72, 0xf3, 0x83, 0xbe, 0x6b, 0x0a, 0x7f, 0x3d,
  0xfb, 0xc1, 0x80, 0x3e, 0x2d, 0xf0, 0xda, 0xbe, 0x98, 0x7c, 0x5d, 0x3d,
  0xb1, 0xd6, 0x6d, 0xbd, 0xf9, 0x31, 0x5b, 0xbf, 0x32, 0xf9, 0xfc, 0xbe,
  0xe6, 0x4f, 0x0d, 0xba, 0xce, 0x97, 0x2a, 0xbf, 0xd4, 0xc8, 0x26, 0xbe,
  0x30, 0x03, 0x2b, 0xbe, 0xae, 0xa1, 0x5d, 0x3d, 0x2b, 0xe4, 0x5f, 0x3d,
  0x64, 0x56, 0xc1, 0x3d, 0xd8, 0xef, 0x9c, 0xbe, 0xc5, 0x03, 0x99, 0xbe,
  0x0e, 0x96, 0xd6, 0xbd, 0x14, 0xac, 0x40, 0x3e, 0xe0, 0x80, 0x95, 0xbe,
  0xfe, 0x8d, 0xd2, 0x3d, 0x2e, 0xea, 0x33, 0xbd, 0x8e, 0x8c, 0x16, 0xbf,
  0xba, 0xaa, 0x30, 0xbf, 0xd9, 0x14, 0x05, 0x3e, 0xa4, 0x41, 0x8d, 0xbe,
  0xde, 0xbf, 0xc0, 0xbe, 0x6d, 0xdf, 0x11, 0xbb, 0x78, 0x78, 0x3c, 0x3e,
  0xc9, 0x2f, 0xd0, 0xbe, 0x39, 0x58, 0xc9, 0xbd, 0xc9, 0x16, 0x82, 0xbe,
  0x31, 0x4b, 0x33, 0x3e, 0xc5, 0x6a, 0xe5, 0xbd, 0x88, 0x75, 0x9d, 0xbc,
  0x38, 0x2b, 0xcc, 0xbe, 0xc0, 0xda, 0xec, 0x3d, 0x71, 0x4a, 0x6a, 0x3e,
  0x2d, 0x9f, 0xce, 0x3e, 0x63, 0x30, 0xd6, 0x3e, 0x55, 0xff, 0x85, 0xbe,
  0xaa, 0x69, 0x08, 0x3e, 0x1c, 0x20, 0x97, 0x3e, 0xb9, 0xeb, 0xe0, 0x3e,
  0x51, 0x1a, 0x05, 0xbf, 0x49, 0x91, 0x1c, 0xbe, 0xc5, 0xcc, 0x30, 0xbe,
  0xff, 0x5f, 0x12, 0x3f, 0x68, 0xfb, 0x10, 0xbd, 0x2a, 0x71, 0xc0, 0x3d,
  0x99, 0xa3, 0xf7, 0x3e, 0x1c, 0x4f, 0x89, 0x3e, 0xd0, 0xdb, 0x65, 0xbe,
  0x63, 0xd5, 0xd0, 0x3d, 0xa6, 0x94, 0x93, 0x3e, 0xdd, 0x6e, 0x9f, 0x3e,
  0x33, 0x43, 0x67, 0xbe, 0x15, 0x2a, 0x91, 0x3d, 0x23, 0x34, 0xe2, 0x3c,
  0x4a, 0xbe, 0xf8, 0x3e, 0x9c, 0x88, 0xee, 0xbe, 0x9f, 0xda, 0xc2, 0xbc,
  0x59, 0xc1, 0x65, 0xbe, 0xe1, 0x26, 0x6b, 0x3e, 0x90, 0xd3, 0xc1, 0x3b,
  0x9d, 0x7f, 0x65, 0xbc, 0xb1, 0x30, 0x56, 0x3e, 0xe7, 0x55, 0x4d, 0x3e,
  0xf5, 0xd5, 0x81, 0x3e, 0xeb, 0x71, 0xed, 0x3d, 0xf4, 0x70, 0x82, 0x3d,
  0x81, 0xf3, 0xec, 0x3d, 0x94, 0xe5, 0xc3, 0xbd, 0x0c, 0x4e, 0xe3, 0xbc,
  0x0b, 0x84, 0x01, 0x3e, 0xcf, 0x3f, 0xca, 0x3e, 0x07, 0xaf, 0xd4, 0xbe,
  0x56, 0x7c, 0xff, 0xbd, 0x7e, 0x6c, 0xc0, 0x3d, 0x2d, 0x82, 0xa5, 0x3e,
  0xab, 0x36, 0xc1, 0x3c, 0x34, 0x45, 0x04, 0x3e, 0xca, 0x73, 0x2e, 0x3e,
  0xe5, 0x46, 0xba, 0x3e, 0xa4, 0xcf, 0x02, 0x3e, 0x1c, 0x92, 0x71, 0x3e,
  0xbe, 0xa1, 0x14, 0x3e, 0x9d, 0x26, 0x80, 0x3e, 0x78, 0x1c, 0x25, 0xbe,
  0xff, 0x8f, 0x42, 0x3d, 0x2c, 0x7f, 0x06, 0x3e, 0xf1, 0x52, 0xf4, 0xbd,
  0x40, 0xe7, 0xdc, 0xbe, 0x4d, 0xce, 0xb9, 0xbd, 0x6f, 0x39, 0x81, 0x3e,
  0xb5, 0xb4, 0xe0, 0x3d, 0x4b, 0x11, 0xbe, 0x3d, 0xfa, 0x57, 0x43, 0x3e,
  0xd8, 0x70, 0x51, 0x3e, 0x5c, 0x47, 0x16, 0x3e, 0xd6, 0xea, 0x6a, 0xbc,
  0xa4, 0x0c, 0xa5, 0x3d, 0xb2, 0x75, 0x6c, 0x3e, 0x03, 0x63, 0xf4, 0x3d,
  0xef, 0x90, 0x11, 0xbe, 0x54, 0x24, 0x9c, 0x3d, 0x5e, 0x75, 0x56, 0x3e,
  0x28, 0x19, 0x4a, 0xbe, 0x8d, 0x05, 0x9e, 0xbe, 0x72, 0xc9, 0x8a, 0x3d,
  0x19, 0x65, 0xa6, 0x3d, 0x89, 0xf1, 0x3d, 0x3e, 0x95, 0xa5, 0xea, 0x3d,
  0x79, 0x6a, 0x71, 0x3d, 0x28, 0x0d, 0x83, 0x3d, 0x76, 0x52, 0x81, 0x3d,
  0x3e, 0xce, 0xe8, 0x3a, 0xba, 0x9b, 0x0c, 0x3e, 0x03, 0xc3, 0x18, 0x3e,
  0xf0, 0x09, 0x65, 0x3e, 0xea, 0x11, 0xde, 0x3c, 0xb9, 0xf9, 0x87, 0xbd,
  0xa5, 0xee, 0xde, 0x3d, 0x78, 0x7d, 0x78, 0xbe, 0x90, 0x94, 0x77, 0xbe,
  0xd4, 0x22, 0xef, 0x3d, 0x48, 0x8b, 0x60, 0xbe, 0xe9, 0xe2, 0x49, 0xbd,
  0x68, 0x07, 0x08, 0x3d, 0x0e, 0xdf, 0xef, 0x3c, 0xf6, 0x56, 0x5a, 0x3d,
  0x58, 0xa2, 0x85, 0x3d, 0xfb, 0xf6, 0xcd, 0x3d, 0x27, 0x9b, 0x0d, 0x3e,
  0x55, 0x91, 0xfc, 0x3d, 0x05, 0x69, 0x8d, 0x3e, 0x84, 0x2a, 0x9d, 0xb8,
  0xfc, 0x61, 0x91, 0x3d, 0x26, 0x04, 0x10, 0x3e, 0x5d, 0xfc, 0x0c, 0xbf,
  0x95, 0x3b, 0x85, 0xbc, 0x36, 0xec, 0x16, 0x3d, 0x8f, 0x06, 0x7d, 0xbd,
  0x3a, 0x9b, 0x41, 0xbd, 0x84, 0x22, 0xce, 0xbb, 0x1a, 0xcc, 0xf3, 0x3d,
  0x0f, 0x75, 0x06, 0x3e, 0x01, 0x8e, 0xdf, 0x3d, 0x2c, 0xa4, 0xc3, 0xbb,
  0x04, 0x1f, 0x01, 0x3e, 0xdc, 0x3f, 0x06, 0x3e, 0xb7, 0x64, 0x4b, 0x3e,
  0xfa, 0x67, 0xd4, 0x3d, 0xc0, 0x36, 0x34, 0xbd, 0x0f, 0xda, 0x07, 0x3e,
  0xd4, 0x3f, 0x93, 0xbe, 0xe8, 0x2c, 0xb1, 0xbe, 0x95, 0xc8, 0x2b, 0x3e,
  0x4d, 0x8f, 0x42, 0x3d, 0x3f, 0x9c, 0x88, 0xbd, 0x4b, 0xba, 0xdc, 0x3d,
  0xb9, 0x6c, 0xa3, 0x3d, 0x99, 0x2e, 0x16, 0x3d, 0xcf, 0x7c, 0x23, 0x3d,
  0x1e, 0x45, 0xfe, 0x3b, 0x35, 0x25, 0x62, 0x3e, 0x08, 0xe0, 0x89, 0xbd,
  0xdc, 0xbf, 0x7a, 0x3e, 0x7a, 0x01, 0x5d, 0x3d, 0x12, 0xb7, 0x11, 0x3e,
  0x72, 0x10, 0x86, 0x3e, 0x78, 0x80, 0x0b, 0xbe, 0x8c, 0xcf, 0xe7, 0xbe,
  0x87, 0x1f, 0x8d, 0xbd, 0x00, 0xfe, 0x2a, 0x3e, 0xa1, 0x4f, 0xa4, 0xbe,
  0x57, 0x2e, 0x92, 0x3e, 0xcf, 0x00, 0xe6, 0x3b, 0x7f, 0x02, 0x97, 0x3d,
  0x2f, 0xe4, 0xb4, 0xbd, 0x60, 0xf8, 0x89, 0x3d, 0x5b, 0xb0, 0xae, 0x3d,
  0x6f, 0x0c, 0x6a, 0x3e, 0xe6, 0x49, 0x5f, 0x3e, 0x6e, 0xa5, 0x47, 0xbe,
  0xb6, 0x72, 0x22, 0x3e, 0xb3, 0xe3, 0xd9, 0x3e, 0x00, 0x8e, 0x7c, 0xbe,
  0xca, 0x7c, 0x00, 0xbf, 0xcc, 0x12, 0xb8, 0xbc, 0x5d, 0x58, 0xa9, 0x3e,
  0x20, 0x54, 0x04, 0xbe, 0x4c, 0x07, 0xcb, 0x3e, 0x4f, 0x77, 0xa8, 0x3d,
  0x7f, 0xe6, 0x34, 0x3e, 0x36, 0x3f, 0x99, 0x3b, 0x45, 0xa5, 0x60, 0xbd,
  0x1b, 0x3d, 0x03, 0x3d, 0x14, 0x34, 0xaf, 0x3d, 0x2e, 0xc4, 0x06, 0x3f,
  0x92, 0x61, 0x1d, 0xbe, 0x5e, 0xa0, 0x4b, 0x3e, 0x60, 0x84, 0xfe, 0x3e,
  0x09, 0x5d, 0xac, 0xbe, 0x47, 0x4f, 0x01, 0xbf, 0x12, 0x44, 0x4a, 0xbd,
  0x57, 0x69, 0xc0, 0x3e, 0x01, 0x1b, 0x1c, 0x3e, 0x9f, 0x2a, 0x8f, 0x3e,
  0x1e, 0xf5, 0x8d, 0x3e, 0x1f, 0x40, 0x3d, 0x3e, 0xa5, 0x07, 0xcd, 0x3d,
  0xec, 0xe3, 0x03, 0x3e, 0x40, 0x2e, 0xf0, 0x3d, 0x69, 0xe4, 0x7c, 0x3e,
  0xd7, 0x35, 0xc9, 0x3e, 0xe6, 0x64, 0x83, 0xbe, 0xf6, 0xb9, 0xa7, 0x3d,
  0x75, 0xb0, 0x47, 0x3f, 0x09, 0x06, 0x70, 0xbe, 0x5d, 0x76, 0xf1, 0xbe,
  0xb0, 0x12, 0xa0, 0xbd, 0x8d, 0x4d, 0x01, 0x3e, 0x34, 0x5d, 0xb0, 0x3d,
  0xba, 0x5a, 0x06, 0x3f, 0x5d, 0xc8, 0x02, 0x3e, 0xc9, 0xd1, 0x35, 0x3e,
  0x86, 0xd5, 0x0f, 0x3e, 0xc4, 0x70, 0xcf, 0xbc, 0xd6, 0x75, 0x8e, 0x3d,
  0x8a, 0x71, 0x16, 0x3e, 0x04, 0x7d, 0xe3, 0x3e, 0xee, 0xc6, 0x8b, 0xbe,
  0x64, 0x56, 0x63, 0x3e, 0xac, 0xb6, 0x54, 0x3f, 0x71, 0x19, 0x2a, 0xbe,
  0x74, 0x1e, 0xe0, 0xbe, 0x71, 0x1d, 0x79, 0x3e, 0xc7, 0xba, 0x53, 0xbe,
  0xda, 0x8d, 0x94, 0x3e, 0xc0, 0x97, 0x80, 0x3d, 0xb2, 0x75, 0x18, 0x3f,
  0x4f, 0x57, 0x2c, 0x3e, 0x10, 0x80, 0xdc, 0x3b, 0x8d, 0x4f, 0x3f, 0xbe,
  0x44, 0x23, 0x15, 0xbf, 0x37, 0x0b, 0xe5, 0x3e, 0x5a, 0x52, 0x42, 0xbe,
  0x42, 0xd1, 0xab, 0x3d, 0xd6, 0x67, 0xad, 0xbe, 0x90, 0x77, 0xb2, 0x3d,
  0x60, 0xa5, 0xcf, 0xbc, 0x05, 0x13, 0x4a, 0x3e, 0xa6, 0xd5, 0x45, 0x3d,
  0x5d, 0xde, 0x15, 0xbe, 0x26, 0x1f, 0x69, 0xbe, 0x3b, 0x51, 0x89, 0x3e,
  0x13, 0x09, 0x8a, 0xbe, 0x8a, 0x78, 0xea, 0x3d, 0xda, 0xca, 0x14, 0x3f,
  0x53, 0x29, 0x12, 0xbe, 0xbb, 0x91, 0x09, 0xbf, 0x9c, 0x15, 0xab, 0x3e,
  0x9d, 0x74, 0x8c, 0xbe, 0x1e, 0x87, 0x80, 0xbd, 0xab, 0x8c, 0x8f, 0xbd,
  0x46, 0xaf, 0xef, 0x3d, 0xa7, 0x6f, 0x5d, 0xbe, 0x56, 0xed, 0xd8, 0x3d,
  0x36, 0xfe, 0x6b, 0x3d, 0xe0, 0x98, 0xba, 0xbe, 0xf2, 0xc5, 0x20, 0x3e,
  0x67, 0x7c, 0xd1, 0x3e, 0x3d, 0x65, 0x39, 0xbd, 0x03, 0xf8, 0x87, 0x3e,
  0x2f, 0x4f, 0xd7, 0x3e, 0x00, 0x5e, 0x8f, 0xbe, 0x96, 0xd0, 0xc0, 0xbe,
  0x7c, 0x1d, 0x83, 0x3e, 0x9d, 0xf9, 0x43, 0xbe, 0x66, 0x45, 0xd3, 0x3c,
  0xc8, 0x75, 0xfc, 0xbc, 0xeb, 0xa8, 0x90, 0x3e, 0xf9, 0x36, 0x66, 0xbe,
  0xf2, 0x6b, 0x3b, 0x3e, 0xc3, 0x95, 0x88, 0x3d, 0xd1, 0x67, 0x82, 0xbe,
  0xd9, 0xbe, 0x97, 0xbd, 0x5c, 0x29, 0xbd, 0x3e, 0xfe, 0xa0, 0xd1, 0xbd,
  0xdb, 0x04, 0x40, 0xbc, 0x47, 0x60, 0xe1, 0x3e, 0xb2, 0x3f, 0xde, 0xbc,
  0xe7, 0x49, 0x64, 0xbe, 0x55, 0x94, 0xc1, 0x3e, 0xf7, 0x26, 0x89, 0xbe,
  0x6e, 0xc5, 0x1b, 0xbd, 0x78, 0x4b, 0xdb, 0xbd, 0x73, 0xee, 0xa3, 0x3e,
  0x97, 0x25, 0xd0, 0xbc, 0xf7, 0x2a, 0xa9, 0x3d, 0x7d, 0xf2, 0xef, 0x3d,
  0xe7, 0xf3, 0x4c, 0xbe, 0xdb, 0x17, 0x3e, 0xbe, 0xac, 0x5e, 0xe7, 0x3e,
  0x42, 0xb3, 0x0c, 0x3e, 0x53, 0x52, 0x6a, 0x3d, 0x32, 0x55, 0x79, 0x3e,
  0x16, 0x7e, 0xb0, 0xbc, 0xdd, 0xf6, 0x90, 0xbe, 0x02, 0x54, 0xaa, 0x3e,
  0x3d, 0x3b, 0xe1, 0xbd, 0x6f, 0x23, 0x9d, 0xbe, 0xc7, 0xf2, 0x90, 0xbc,
  0x96, 0x8d, 0xf1, 0x3d, 0x77, 0xaf, 0x5e, 0xbe, 0xac, 0xfa, 0xbb, 0xbd,
  0x65, 0x4a, 0xc7, 0x3d, 0xfb, 0x50, 0x85, 0xbe, 0x4e, 0xa9, 0x29, 0xbe,
  0xd6, 0x36, 0xa1, 0x3e, 0x6f, 0xdc, 0xcf, 0x3d, 0x21, 0xf5, 0x00, 0xbe,
  0x7d, 0xdc, 0x78, 0x3e, 0x40, 0xd7, 0xae, 0xbe, 0x5c, 0x76, 0x7d, 0xbe,
  0xf6, 0x3c, 0xe0, 0x3d, 0xa0, 0xcd, 0xdf, 0xbe, 0x86, 0xda, 0x43, 0xbe,
  0x9b, 0x52, 0xd4, 0x3d, 0x9c, 0x38, 0x44, 0x3e, 0x14, 0xdc, 0xfc, 0xbb,
  0x3b, 0xba, 0xfb, 0xbe, 0x53, 0xd4, 0x96, 0x3d, 0x0a, 0xaa, 0xc8, 0x3c,
  0x39, 0x9c, 0xe5, 0xbd, 0x29, 0x23, 0xd2, 0x3e, 0x30, 0x3d, 0x00, 0x3e,
  0x54, 0x82, 0x54, 0xbe, 0x1b, 0x70, 0x2d, 0x3e, 0x2c, 0xf5, 0xfc, 0x3c,
  0x1b, 0x48, 0x5b, 0xbe, 0x03, 0x2c, 0x31, 0x3d, 0xe2, 0x9c, 0x1b, 0xbf,
  0x59, 0x11, 0xe3, 0x3d, 0xcc, 0x2b, 0x0a, 0x3d, 0x48, 0x80, 0x85, 0x3b,
  0x13, 0xa4, 0xbd, 0x3d, 0x65, 0x79, 0x8b, 0xbd, 0x4a, 0x3d, 0x4b, 0x3e,
  0x32, 0x93, 0xdd, 0x3d, 0xa4, 0x6a, 0xa9, 0xbd, 0x08, 0x82, 0x2a, 0xbe,
  0xe5, 0xed, 0x04, 0x3d, 0x00, 0xdc, 0x67, 0xbe, 0x72, 0xcd, 0x5b, 0x3e,
  0x78, 0xa3, 0x99, 0xbd, 0xd6, 0xba, 0x7b, 0xbe, 0x3f, 0x72, 0xce, 0x3d,
  0xe2, 0x8a, 0x0b, 0xbf, 0x35, 0x75, 0x8a, 0x3d, 0x34, 0xdc, 0x17, 0x3e,
  0x94, 0x20, 0x36, 0x3e, 0x07, 0xf7, 0x64, 0x3d, 0x82, 0xc4, 0xed, 0xbd,
  0x2e, 0x95, 0x03, 0x3e, 0x22, 0x39, 0x50, 0x3e, 0x27, 0xa8, 0xf6, 0x3c,
  0x0f, 0xda, 0x90, 0xbe, 0xf7, 0xd1, 0xe9, 0xbc, 0x6b, 0x9a, 0x9f, 0xbe,
  0x1d, 0x2d, 0x19, 0x3d, 0x8d, 0xfa, 0xa1, 0xbe, 0x46, 0xd1, 0x20, 0xbf,
  0x69, 0x40, 0x78, 0xbb, 0xab, 0x4a, 0xd9, 0xbe, 0x67, 0x31, 0x70, 0xbd,
  0x69, 0x11, 0x88, 0x3d, 0xd9, 0x18, 0x4d, 0xbe, 0x3f, 0x20, 0x92, 0x3e,
  0x71, 0x6e, 0x9c, 0xbe, 0x7a, 0x33, 0x9c, 0xbd, 0xda, 0x3f, 0x27, 0x3e,
  0xa8, 0xd2, 0x93, 0x3d, 0x57, 0x46, 0x4a, 0xbe, 0xb7, 0xbb, 0x8a, 0xbd,
  0x15, 0x14, 0x1a, 0xbf, 0xa3, 0x2a, 0x18, 0x3e, 0x58, 0x17, 0x24, 0xbe,
  0x18, 0x7e, 0x0a, 0xbf, 0x06, 0xb2, 0xa4, 0x3d, 0x0d, 0x70, 0x90, 0xbe,
  0x11, 0xdd, 0xc0, 0xbd, 0xf4, 0xb7, 0x55, 0xbd, 0x5f, 0xa4, 0x71, 0xbd,
  0x11, 0xa7, 0x0e, 0x3e, 0x5d, 0x63, 0x31, 0xbe, 0x71, 0x7b, 0x81, 0x3d,
  0x41, 0x6e, 0xfe, 0x3c, 0xa0, 0x9f, 0xdb, 0x3d, 0x55, 0x1b, 0x23, 0x3e,
  0x41, 0x68, 0x29, 0x3d, 0x8d, 0xf7, 0x50, 0xbe, 0x37, 0xe3, 0x40, 0x3e,
  0xae, 0x6e, 0x0b, 0xbe, 0x54, 0x0d, 0xdd, 0xbe, 0xfe, 0x4d, 0xe5, 0x3d,
  0x70, 0x0e, 0xf2, 0x3c, 0xf9, 0x73, 0xdd, 0x3d, 0x5d, 0x9f, 0x91, 0xbd,
  0x4a, 0x2e, 0x3a, 0x3e, 0x7e, 0xdd, 0x34, 0x3e, 0xfd, 0xeb, 0xa4, 0xbd,
  0x57, 0xd5, 0x80, 0xbd, 0xac, 0xee, 0x8b, 0xbe, 0x34, 0x8b, 0x70, 0x3d,
  0xe2, 0xff, 0x80, 0x3d, 0xd4, 0x1d, 0xe6, 0xbd, 0x4b, 0xd4, 0xe5, 0xbd,
  0xf1, 0xd1, 0x12, 0x3e, 0x34, 0xe1, 0x75, 0xbe, 0x42, 0x76, 0x13, 0xbf,
  0x7a, 0x86, 0x8b, 0x3d, 0xbe, 0xef, 0x1a, 0x3e, 0xcb, 0xa4, 0x5b, 0xbb,
  0xd6, 0xf9, 0x21, 0xbe, 0xfc, 0x33, 0xe4, 0xbb, 0xcf, 0x33, 0x8c, 0x3e,
  0x1b, 0xd5, 0xf8, 0x3d, 0x19, 0x93, 0x7a, 0xbe, 0x5a, 0xb7, 0x99, 0xbe,
  0xf7, 0xba, 0x0f, 0x3e, 0xf6, 0x9d, 0x84, 0xbe, 0xc7, 0x0b, 0x39, 0xbe,
  0xe2, 0x99, 0x5a, 0xbd, 0xd1, 0x33, 0xfc, 0x3d, 0x37, 0x13, 0x4f, 0xbe,
  0x13, 0xe6, 0x1c, 0xbf, 0xe5, 0x2c, 0x58, 0x3e, 0x96, 0x62, 0x8b, 0xbd,
  0xf0, 0x10, 0xef, 0x3d, 0x67, 0x13, 0x33, 0xbf, 0x3e, 0x3c, 0xca, 0xbe,
  0xdf, 0xa2, 0x79, 0xbd, 0x78, 0x51, 0x71, 0x3e, 0x31, 0xb7, 0xf1, 0xbe,
  0x0d, 0x20, 0xc3, 0xbd, 0x52, 0x11, 0x0e, 0xbe, 0x58, 0xf5, 0x2e, 0xbe,
  0x38, 0x83, 0x7a, 0xbf, 0x8e, 0x95, 0x3c, 0xbe, 0x0a, 0x19, 0x97, 0x3d,
  0x11, 0x3c, 0xe5, 0xbe, 0xaa, 0xfe, 0xff, 0xff, 0x04, 0x00, 0x00, 0x00,
  0x08, 0x00, 0x00, 0x00, 0xff, 0xff, 0xff, 0xff, 0xd0, 0x00, 0x00, 0x00,
  0xbe, 0xfe, 0xff, 0xff, 0x04, 0x00, 0x00, 0x00, 0x20, 0x00, 0x00, 0x00,
  0x4c, 0xd2, 0x24, 0xbf, 0x7b, 0x2b, 0x9b, 0xbf, 0x79, 0xfb, 0xd5, 0xbe,
  0x98, 0x5a, 0x6c, 0xbf, 0x03, 0x18, 0x90, 0xbf, 0xad, 0x59, 0x96, 0xbe,
  0xae, 0x7d, 0xd3, 0xbe, 0x1c, 0xbc, 0x6b, 0xbe, 0xea, 0xfe, 0xff, 0xff,
  0x04, 0x00, 0x00, 0x00, 0x40, 0x00, 0x00, 0x00, 0x61, 0x06, 0x1f, 0xbe,
  0x12, 0xbd, 0x3e, 0xbe, 0x3e, 0x27, 0x00, 0x3f, 0x08, 0x7f, 0x02, 0xbe,
  0x2e, 0xde, 0x05, 0xbf, 0x97, 0x78, 0x0f, 0xbe, 0x19, 0x87, 0x4e, 0xbe,
  0xf6, 0xa7, 0x2c, 0x3e, 0x95, 0x6e, 0x90, 0xbe, 0x8e, 0x7a, 0x81, 0xbe,
  0xae, 0x80, 0x95, 0xbc, 0x23, 0x1a, 0xb7, 0xbe, 0x22, 0xfb, 0x71, 0xbe,
  0x71, 0x39, 0xbe, 0x3d, 0x85, 0x23, 0x5c, 0xbe, 0x29, 0x99, 0x96, 0xbc,
  0x36, 0xff, 0xff, 0xff, 0x04, 0x00, 0x00, 0x00, 0x1c, 0x00, 0x00, 0x00,
  0x43, 0x67, 0x1e, 0xbe, 0x28, 0x2c, 0x8d, 0x3e, 0x5f, 0xdd, 0x2d, 0xbe,
  0x6d, 0xc5, 0x15, 0xbe, 0xdb, 0x04, 0x64, 0xbe, 0x1d, 0xcf, 0xa8, 0x3e,
  0xac, 0x0d, 0x7c, 0xbe, 0x64, 0xf5, 0xff, 0xff, 0x68, 0xf5, 0xff, 0xff,
  0x0f, 0x00, 0x00, 0x00, 0x4d, 0x4c, 0x49, 0x52, 0x20, 0x43, 0x6f, 0x6e,
  0x76, 0x65, 0x72, 0x74, 0x65, 0x64, 0x2e, 0x00, 0x01, 0x00, 0x00, 0x00,
  0x14, 0x00, 0x00, 0x00, 0x00, 0x00, 0x0e, 0x00, 0x18, 0x00, 0x14, 0x00,
  0x10, 0x00, 0x0c, 0x00, 0x08, 0x00, 0x04, 0x00, 0x0e, 0x00, 0x00, 0x00,
  0x14, 0x00, 0x00, 0x00, 0x1c, 0x00, 0x00, 0x00, 0x84, 0x02, 0x00, 0x00,
  0x88, 0x02, 0x00, 0x00, 0x8c, 0x02, 0x00, 0x00, 0x04, 0x00, 0x00, 0x00,
  0x6d, 0x61, 0x69, 0x6e, 0x00, 0x00, 0x00, 0x00, 0x0b, 0x00, 0x00, 0x00,
  0x48, 0x02, 0x00, 0x00, 0xec, 0x01, 0x00, 0x00, 0xb8, 0x01, 0x00, 0x00,
  0x68, 0x01, 0x00, 0x00, 0x44, 0x01, 0x00, 0x00, 0x00, 0x01, 0x00, 0x00,
  0xdc, 0x00, 0x00, 0x00, 0x9c, 0x00, 0x00, 0x00, 0x78, 0x00, 0x00, 0x00,
  0x40, 0x00, 0x00, 0x00, 0x04, 0x00, 0x00, 0x00, 0x4a, 0xfe, 0xff, 0xff,
  0x1c, 0x00, 0x00, 0x00, 0x00, 0x00, 0x00, 0x09, 0x1c, 0x00, 0x00, 0x00,
  0x20, 0x00, 0x00, 0x00, 0x04, 0x00, 0x00, 0x00, 0x00, 0x00, 0x06, 0x00,
  0x08, 0x00, 0x04, 0x00, 0x06, 0x00, 0x00, 0x00, 0x00, 0x00, 0x80, 0x3f,
  0x01, 0x00, 0x00, 0x00, 0x16, 0x00, 0x00, 0x00, 0x01, 0x00, 0x00, 0x00,
  0x15, 0x00, 0x00, 0x00, 0x82, 0xfe, 0xff, 0xff, 0x14, 0x00, 0x00, 0x00,
  0x00, 0x00, 0x00, 0x08, 0x10, 0x00, 0x00, 0x00, 0x14, 0x00, 0x00, 0x00,
  0x03, 0x00, 0x00, 0x00, 0x3c, 0xf6, 0xff, 0xff, 0x01, 0x00, 0x00, 0x00,
  0x15, 0x00, 0x00, 0x00, 0x03, 0x00, 0x00, 0x00, 0x14, 0x00, 0x00, 0x00,
  0x05, 0x00, 0x00, 0x00, 0x01, 0x00, 0x00, 0x00, 0x5a, 0xfe, 0xff, 0xff,
  0x08, 0x00, 0x00, 0x00, 0x0c, 0x00, 0x00, 0x00, 0x01, 0x00, 0x00, 0x00,
  0x14, 0x00, 0x00, 0x00, 0x02, 0x00, 0x00, 0x00, 0x13, 0x00, 0x00, 0x00,
  0x04, 0x00, 0x00, 0x00, 0xd6, 0xfe, 0xff, 0xff, 0x14, 0x00, 0x00, 0x00,
  0x00, 0x00, 0x00, 0x05, 0x20, 0x00, 0x00, 0x00, 0x24, 0x00, 0x00, 0x00,
  0x02, 0x00, 0x00, 0x00, 0x42, 0xff, 0xff, 0xff, 0x02, 0x00, 0x00, 0x00,
  0x01, 0x00, 0x00, 0x00, 0x02, 0x00, 0x00, 0x00, 0x01, 0x00, 0x00, 0x00,
  0x01, 0x00, 0x00, 0x00, 0x13, 0x00, 0x00, 0x00, 0x01, 0x00, 0x00, 0x00,
  0x12, 0x00, 0x00, 0x00, 0xb6, 0xfe, 0xff, 0xff, 0x08, 0x00, 0x00, 0x00,
  0x0c, 0x00, 0x00, 0x00, 0x01, 0x00, 0x00, 0x00, 0x12, 0x00, 0x00, 0x00,
  0x02, 0x00, 0x00, 0x00, 0x11, 0x00, 0x00, 0x00, 0x0b, 0x00, 0x00, 0x00,
  0x32, 0xff, 0xff, 0xff, 0x14, 0x00, 0x00, 0x00, 0x00, 0x00, 0x00, 0x01,
  0x1c, 0x00, 0x00, 0x00, 0x20, 0x00, 0x00, 0x00, 0x01, 0x00, 0x00, 0x00,
  0x24, 0xff, 0xff, 0xff, 0x00, 0x00, 0x00, 0x01, 0x01, 0x00, 0x00, 0x00,
  0x01, 0x00, 0x00, 0x00, 0x01, 0x00, 0x00, 0x00, 0x11, 0x00, 0x00, 0x00,
  0x03, 0x00, 0x00, 0x00, 0x10, 0x00, 0x00, 0x00, 0x07, 0x00, 0x00, 0x00,
  0x02, 0x00, 0x00, 0x00, 0x16, 0xff, 0xff, 0xff, 0x08, 0x00, 0x00, 0x00,
  0x0c, 0x00, 0x00, 0x00, 0x01, 0x00, 0x00, 0x00, 0x10, 0x00, 0x00, 0x00,
  0x02, 0x00, 0x00, 0x00, 0x0f, 0x00, 0x00, 0x00, 0x0a, 0x00, 0x00, 0x00,
  0x92, 0xff, 0xff, 0xff, 0x24, 0x00, 0x00, 0x00, 0x00, 0x00, 0x00, 0x05,
  0x30, 0x00, 0x00, 0x00, 0x34, 0x00, 0x00, 0x00, 0x02, 0x00, 0x00, 0x00,
  0x00, 0x00, 0x0e, 0x00, 0x14, 0x00, 0x00, 0x00, 0x10, 0x00, 0x0c, 0x00,
  0x08, 0x00, 0x04, 0x00, 0x0e, 0x00, 0x00, 0x00, 0x02, 0x00, 0x00, 0x00,
  0x01, 0x00, 0x00, 0x00, 0x02, 0x00, 0x00, 0x00, 0x01, 0x00, 0x00, 0x00,
  0x01, 0x00, 0x00, 0x00, 0x0f, 0x00, 0x00, 0x00, 0x01, 0x00, 0x00, 0x00,
  0x0e, 0x00, 0x00, 0x00, 0x82, 0xff, 0xff, 0xff, 0x08, 0x00, 0x00, 0x00,
  0x0c, 0x00, 0x00, 0x00, 0x01, 0x00, 0x00, 0x00, 0x0e, 0x00, 0x00, 0x00,
  0x02, 0x00, 0x00, 0x00, 0x0d, 0x00, 0x00, 0x00, 0x09, 0x00, 0x00, 0x00,
  0x00, 0x00, 0x0e, 0x00, 0x18, 0x00, 0x14, 0x00, 0x10, 0x00, 0x0c, 0x00,
  0x0b, 0x00, 0x04, 0x00, 0x0e, 0x00, 0x00, 0x00, 0x20, 0x00, 0x00, 0x00,
  0x00, 0x00, 0x00, 0x01, 0x28, 0x00, 0x00, 0x00, 0x2c, 0x00, 0x00, 0x00,
  0x01, 0x00, 0x00, 0x00, 0x0c, 0x00, 0x10, 0x00, 0x00, 0x00, 0x0c, 0x00,
  0x08, 0x00, 0x07, 0x00, 0x0c, 0x00, 0x00, 0x00, 0x00, 0x00, 0x00, 0x01,
  0x01, 0x00, 0x00, 0x00, 0x01, 0x00, 0x00, 0x00, 0x01, 0x00, 0x00, 0x00,
  0x0d, 0x00, 0x00, 0x00, 0x03, 0x00, 0x00, 0x00, 0x0c, 0x00, 0x00, 0x00,
  0x06, 0x00, 0x00, 0x00, 0x03, 0x00, 0x00, 0x00, 0x00, 0x00, 0x0a, 0x00,
  0x0c, 0x00, 0x00, 0x00, 0x08, 0x00, 0x04, 0x00, 0x0a, 0x00, 0x00, 0x00,
  0x08, 0x00, 0x00, 0x00, 0x0c, 0x00, 0x00, 0x00, 0x01, 0x00, 0x00, 0x00,
  0x0c, 0x00, 0x00, 0x00, 0x02, 0x00, 0x00, 0x00, 0x00, 0x00, 0x00, 0x00,
  0x08, 0x00, 0x00, 0x00, 0x01, 0x00, 0x00, 0x00, 0x16, 0x00, 0x00, 0x00,
  0x01, 0x00, 0x00, 0x00, 0x00, 0x00, 0x00, 0x00, 0x17, 0x00, 0x00, 0x00,
  0xb0, 0x07, 0x00, 0x00, 0x6c, 0x07, 0x00, 0x00, 0x34, 0x07, 0x00, 0x00,
  0x00, 0x07, 0x00, 0x00, 0xb8, 0x06, 0x00, 0x00, 0x60, 0x06, 0x00, 0x00,
  0x10, 0x06, 0x00, 0x00, 0xc0, 0x05, 0x00, 0x00, 0x70, 0x05, 0x00, 0x00,
  0x20, 0x05, 0x00, 0x00, 0xcc, 0x04, 0x00, 0x00, 0x78, 0x04, 0x00, 0x00,
  0x1c, 0x04, 0x00, 0x00, 0x70, 0x03, 0x00, 0x00, 0x14, 0x03, 0x00, 0x00,
  0xbc, 0x02, 0x00, 0x00, 0x60, 0x02, 0x00, 0x00, 0xa8, 0x01, 0x00, 0x00,
  0x4c, 0x01, 0x00, 0x00, 0xf4, 0x00, 0x00, 0x00, 0xac, 0x00, 0x00, 0x00,
  0x4c, 0x00, 0x00, 0x00, 0x04, 0x00, 0x00, 0x00, 0xba, 0xf8, 0xff, 0xff,
  0x10, 0x00, 0x00, 0x00, 0x10, 0x00, 0x00, 0x00, 0x17, 0x00, 0x00, 0x00,
  0x28, 0x00, 0x00, 0x00, 0xac, 0xf8, 0xff, 0xff, 0x19, 0x00, 0x00, 0x00,
  0x53, 0x74, 0x61, 0x74, 0x65, 0x66, 0x75, 0x6c, 0x50, 0x61, 0x72, 0x74,
  0x69, 0x74, 0x69, 0x6f, 0x6e, 0x65, 0x64, 0x43, 0x61, 0x6c, 0x6c, 0x3a,
  0x30, 0x00, 0x00, 0x00, 0x02, 0x00, 0x00, 0x00, 0x01, 0x00, 0x00, 0x00,
  0x07, 0x00, 0x00, 0x00, 0xfe, 0xf8, 0xff, 0xff, 0x10, 0x00, 0x00, 0x00,
  0x10, 0x00, 0x00, 0x00, 0x16, 0x00, 0x00, 0x00, 0x40, 0x00, 0x00, 0x00,
  0xf0, 0xf8, 0xff, 0xff, 0x32, 0x00, 0x00, 0x00, 0x73, 0x65, 0x71, 0x75,
  0x65, 0x6e, 0x74, 0x69, 0x61, 0x6c, 0x2f, 0x79, 0x5f, 0x70, 0x72, 0x65,
  0x64, 0x2f, 0x4d, 0x61, 0x74, 0x4d, 0x75, 0x6c, 0x3b, 0x73, 0x65, 0x71,
  0x75, 0x65, 0x6e, 0x74, 0x69, 0x61, 0x6c, 0x2f, 0x79, 0x5f, 0x70, 0x72,
  0x65, 0x64, 0x2f, 0x42, 0x69, 0x61, 0x73, 0x41, 0x64, 0x64, 0x00, 0x00,
  0x02, 0x00, 0x00, 0x00, 0x01, 0x00, 0x00, 0x00, 0x07, 0x00, 0x00, 0x00,
  0x5a, 0xf9, 0xff, 0xff, 0x10, 0x00, 0x00, 0x00, 0x10, 0x00, 0x00, 0x00,
  0x15, 0x00, 0x00, 0x00, 0x28, 0x00, 0x00, 0x00, 0x4c, 0xf9, 0xff, 0xff,
  0x1a, 0x00, 0x00, 0x00, 0x73, 0x65, 0x71, 0x75, 0x65, 0x6e, 0x74, 0x69,
  0x61, 0x6c, 0x2f, 0x66, 0x6c, 0x61, 0x74, 0x74, 0x65, 0x6e, 0x2f, 0x52,
  0x65, 0x73, 0x68, 0x61, 0x70, 0x65, 0x00, 0x00, 0x02, 0x00, 0x00, 0x00,
  0x01, 0x00, 0x00, 0x00, 0xd0, 0x00, 0x00, 0x00, 0x9e, 0xf9, 0xff, 0xff,
  0x10, 0x00, 0x00, 0x00, 0x10, 0x00, 0x00, 0x00, 0x14, 0x00, 0x00, 0x00,
  0x30, 0x00, 0x00, 0x00, 0x90, 0xf9, 0xff, 0xff, 0x22, 0x00, 0x00, 0x00,
  0x73, 0x65, 0x71, 0x75, 0x65, 0x6e, 0x74, 0x69, 0x61, 0x6c, 0x2f, 0x6d,
  0x61, 0x78, 0x5f, 0x70, 0x6f, 0x6f, 0x6c, 0x69, 0x6e, 0x67, 0x31, 0x64,
  0x5f, 0x31, 0x2f, 0x4d, 0x61, 0x78, 0x50, 0x6f, 0x6f, 0x6c, 0x00, 0x00,
  0x04, 0x00, 0x00, 0x00, 0x01, 0x00, 0x00, 0x00, 0x0d, 0x00, 0x00, 0x00,
  0x01, 0x00, 0x00, 0x00, 0x10, 0x00, 0x00, 0x00, 0xf2, 0xf9, 0xff, 0xff,
  0x10, 0x00, 0x00, 0x00, 0x10, 0x00, 0x00, 0x00, 0x13, 0x00, 0x00, 0x00,
  0x34, 0x00, 0x00, 0x00, 0xe4, 0xf9, 0xff, 0xff, 0x26, 0x00, 0x00, 0x00,
  0x73, 0x65, 0x71, 0x75, 0x65, 0x6e, 0x74, 0x69, 0x61, 0x6c, 0x2f, 0x6d,
  0x61, 0x78, 0x5f, 0x70, 0x6f, 0x6f, 0x6c, 0x69, 0x6e, 0x67, 0x31, 0x64,
  0x5f, 0x31, 0x2f, 0x45, 0x78, 0x70, 0x61, 0x6e, 0x64, 0x44, 0x69, 0x6d,
  0x73, 0x31, 0x00, 0x00, 0x04, 0x00, 0x00, 0x00, 0x01, 0x00, 0x00, 0x00,
  0x19, 0x00, 0x00, 0x00, 0x01, 0x00, 0x00, 0x00, 0x10, 0x00, 0x00, 0x00,
  0x4a, 0xfa, 0xff, 0xff, 0x10, 0x00, 0x00, 0x00, 0x10, 0x00, 0x00, 0x00,
  0x12, 0x00, 0x00, 0x00, 0x90, 0x00, 0x00, 0x00, 0x3c, 0xfa, 0xff, 0xff,
  0x80, 0x00, 0x00, 0x00, 0x73, 0x65, 0x71, 0x75, 0x65, 0x6e, 0x74, 0x69,
  0x61, 0x6c, 0x2f, 0x63, 0x6f, 0x6e, 0x76, 0x31, 0x64, 0x5f, 0x31, 0x2f,
  0x52, 0x65, 0x6c, 0x75, 0x3b, 0x73, 0x65, 0x71, 0x75, 0x65, 0x6e, 0x74,
  0x69, 0x61, 0x6c, 0x2f, 0x63, 0x6f, 0x6e, 0x76, 0x31, 0x64, 0x5f, 0x31,
  0x2f, 0x42, 0x69, 0x61, 0x73, 0x41, 0x64, 0x64, 0x3b, 0x73, 0x65, 0x71,
  0x75, 0x65, 0x6e, 0x74, 0x69, 0x61, 0x6c, 0x2f, 0x63, 0x6f, 0x6e, 0x76,
  0x31, 0x64, 0x5f, 0x31, 0x2f, 0x43, 0x6f, 0x6e, 0x76, 0x31, 0x44, 0x2f,
  0x53, 0x71, 0x75, 0x65, 0x65, 0x7a, 0x65, 0x3b, 0x63, 0x6f, 0x6e, 0x76,
  0x31, 0x64, 0x5f, 0x31, 0x2f, 0x62, 0x69, 0x61, 0x73, 0x3b, 0x73, 0x65,
  0x71, 0x75, 0x65, 0x6e, 0x74, 0x69, 0x61, 0x6c, 0x2f, 0x63, 0x6f, 0x6e,
  0x76, 0x31, 0x64, 0x5f, 0x31, 0x2f, 0x43, 0x6f, 0x6e, 0x76, 0x31, 0x44,
  0x00, 0x00, 0x00, 0x00, 0x04, 0x00, 0x00, 0x00, 0x01, 0x00, 0x00, 0x00,
  0x01, 0x00, 0x00, 0x00, 0x19, 0x00, 0x00, 0x00, 0x10, 0x00, 0x00, 0x00,
  0xfe, 0xfa, 0xff, 0xff, 0x10, 0x00, 0x00, 0x00, 0x10, 0x00, 0x00, 0x00,
  0x11, 0x00, 0x00, 0x00, 0x34, 0x00, 0x00, 0x00, 0xf0, 0xfa, 0xff, 0xff,
  0x26, 0x00, 0x00, 0x00, 0x73, 0x65, 0x71, 0x75, 0x65, 0x6e, 0x74, 0x69,
  0x61, 0x6c, 0x2f, 0x63, 0x6f, 0x6e, 0x76, 0x31, 0x64, 0x5f, 0x31, 0x2f,
  0x43, 0x6f, 0x6e, 0x76, 0x31, 0x44, 0x2f, 0x45, 0x78, 0x70, 0x61, 0x6e,
  0x64, 0x44, 0x69, 0x6d, 0x73, 0x31, 0x00, 0x00, 0x04, 0x00, 0x00, 0x00,
  0x01, 0x00, 0x00, 0x00, 0x01, 0x00, 0x00, 0x00, 0x19, 0x00, 0x00, 0x00,
  0x08, 0x00, 0x00, 0x00, 0x56, 0xfb, 0xff, 0xff, 0x10, 0x00, 0x00, 0x00,
  0x10, 0x00, 0x00, 0x00, 0x10, 0x00, 0x00, 0x00, 0x30, 0x00, 0x00, 0x00,
  0x48, 0xfb, 0xff, 0xff, 0x20, 0x00, 0x00, 0x00, 0x73, 0x65, 0x71, 0x75,
  0x65, 0x6e, 0x74, 0x69, 0x61, 0x6c, 0x2f, 0x6d, 0x61, 0x78, 0x5f, 0x70,
  0x6f, 0x6f, 0x6c, 0x69, 0x6e, 0x67, 0x31, 0x64, 0x2f, 0x4d, 0x61, 0x78,
  0x50, 0x6f, 0x6f, 0x6c, 0x00, 0x00, 0x00, 0x00, 0x04, 0x00, 0x00, 0x00,
  0x01, 0x00, 0x00, 0x00, 0x19, 0x00, 0x00, 0x00, 0x01, 0x00, 0x00, 0x00,
  0x08, 0x00, 0x00, 0x00, 0xaa, 0xfb, 0xff, 0xff, 0x10, 0x00, 0x00, 0x00,
  0x10, 0x00, 0x00, 0x00, 0x0f, 0x00, 0x00, 0x00, 0x34, 0x00, 0x00, 0x00,
  0x9c, 0xfb, 0xff, 0xff, 0x24, 0x00, 0x00, 0x00, 0x73, 0x65, 0x71, 0x75,
  0x65, 0x6e, 0x74, 0x69, 0x61, 0x6c, 0x2f, 0x6d, 0x61, 0x78, 0x5f, 0x70,
  0x6f, 0x6f, 0x6c, 0x69, 0x6e, 0x67, 0x31, 0x64, 0x2f, 0x45, 0x78, 0x70,
  0x61, 0x6e, 0x64, 0x44, 0x69, 0x6d, 0x73, 0x31, 0x00, 0x00, 0x00, 0x00,
  0x04, 0x00, 0x00, 0x00, 0x01, 0x00, 0x00, 0x00, 0x31, 0x00, 0x00, 0x00,
  0x01, 0x00, 0x00, 0x00, 0x08, 0x00, 0x00, 0x00, 0x02, 0xfc, 0xff, 0xff,
  0x10, 0x00, 0x00, 0x00, 0x10, 0x00, 0x00, 0x00, 0x0e, 0x00, 0x00, 0x00,
  0x84, 0x00, 0x00, 0x00, 0xf4, 0xfb, 0xff, 0xff, 0x76, 0x00, 0x00, 0x00,
  0x73, 0x65, 0x71, 0x75, 0x65, 0x6e, 0x74, 0x69, 0x61, 0x6c, 0x2f, 0x63,
  0x6f, 0x6e, 0x76, 0x31, 0x64, 0x2f, 0x52, 0x65, 0x6c, 0x75, 0x3b, 0x73,
  0x65, 0x71, 0x75, 0x65, 0x6e, 0x74, 0x69, 0x61, 0x6c, 0x2f, 0x63, 0x6f,
  0x6e, 0x76, 0x31, 0x64, 0x2f, 0x42, 0x69, 0x61, 0x73, 0x41, 0x64, 0x64,
  0x3b, 0x73, 0x65, 0x71, 0x75, 0x65, 0x6e, 0x74, 0x69, 0x61, 0x6c, 0x2f,
  0x63, 0x6f, 0x6e, 0x76, 0x31, 0x64, 0x2f, 0x43, 0x6f, 0x6e, 0x76, 0x31,
  0x44, 0x2f, 0x53, 0x71, 0x75, 0x65, 0x65, 0x7a, 0x65, 0x3b, 0x63, 0x6f,
  0x6e, 0x76, 0x31, 0x64, 0x2f, 0x62, 0x69, 0x61, 0x73, 0x3b, 0x73, 0x65,
  0x71, 0x75, 0x65, 0x6e, 0x74, 0x69, 0x61, 0x6c, 0x2f, 0x63, 0x6f, 0x6e,
  0x76, 0x31, 0x64, 0x2f, 0x43, 0x6f, 0x6e, 0x76, 0x31, 0x44, 0x00, 0x00,
  0x04, 0x00, 0x00, 0x00, 0x01, 0x00, 0x00, 0x00, 0x01, 0x00, 0x00, 0x00,
  0x31, 0x00, 0x00, 0x00, 0x08, 0x00, 0x00, 0x00, 0xaa, 0xfc, 0xff, 0xff,
  0x10, 0x00, 0x00, 0x00, 0x10, 0x00, 0x00, 0x00, 0x0d, 0x00, 0x00, 0x00,
  0x34, 0x00, 0x00, 0x00, 0x9c, 0xfc, 0xff, 0xff, 0x24, 0x00, 0x00, 0x00,
  0x73, 0x65, 0x71, 0x75, 0x65, 0x6e, 0x74, 0x69, 0x61, 0x6c, 0x2f, 0x63,
  0x6f, 0x6e, 0x76, 0x31, 0x64, 0x2f, 0x43, 0x6f, 0x6e, 0x76, 0x31, 0x44,
  0x2f, 0x45, 0x78, 0x70, 0x61, 0x6e, 0x64, 0x44, 0x69, 0x6d, 0x73, 0x31,
  0x00, 0x00, 0x00, 0x00, 0x04, 0x00, 0x00, 0x00, 0x01, 0x00, 0x00, 0x00,
  0x01, 0x00, 0x00, 0x00, 0x31, 0x00, 0x00, 0x00, 0x0d, 0x00, 0x00, 0x00,
  0xea, 0xfd, 0xff, 0xff, 0x14, 0x00, 0x00, 0x00, 0x14, 0x00, 0x00, 0x00,
  0x0c, 0x00, 0x00, 0x00, 0x00, 0x00, 0x00, 0x02, 0x34, 0x00, 0x00, 0x00,
  0xf8, 0xfc, 0xff, 0xff, 0x25, 0x00, 0x00, 0x00, 0x73, 0x65, 0x71, 0x75,
  0x65, 0x6e, 0x74, 0x69, 0x61, 0x6c, 0x2f, 0x6d, 0x61, 0x78, 0x5f, 0x70,
  0x6f, 0x6f, 0x6c, 0x69, 0x6e, 0x67, 0x31, 0x64, 0x5f, 0x31, 0x2f, 0x45,
  0x78, 0x70, 0x61, 0x6e, 0x64, 0x44, 0x69, 0x6d, 0x73, 0x00, 0x00, 0x00,
  0x01, 0x00, 0x00, 0x00, 0x04, 0x00, 0x00, 0x00, 0x3a, 0xfe, 0xff, 0xff,
  0x14, 0x00, 0x00, 0x00, 0x14, 0x00, 0x00, 0x00, 0x0b, 0x00, 0x00, 0x00,
  0x00, 0x00, 0x00, 0x02, 0x34, 0x00, 0x00, 0x00, 0x48, 0xfd, 0xff, 0xff,
  0x25, 0x00, 0x00, 0x00, 0x73, 0x65, 0x71, 0x75, 0x65, 0x6e, 0x74, 0x69,
  0x61, 0x6c, 0x2f, 0x63, 0x6f, 0x6e, 0x76, 0x31, 0x64, 0x5f, 0x31, 0x2f,
  0x43, 0x6f, 0x6e, 0x76, 0x31, 0x44, 0x2f, 0x45, 0x78, 0x70, 0x61, 0x6e,
  0x64, 0x44, 0x69, 0x6d, 0x73, 0x00, 0x00, 0x00, 0x01, 0x00, 0x00, 0x00,
  0x04, 0x00, 0x00, 0x00, 0x8a, 0xfe, 0xff, 0xff, 0x14, 0x00, 0x00, 0x00,
  0x14, 0x00, 0x00, 0x00, 0x0a, 0x00, 0x00, 0x00, 0x00, 0x00, 0x00, 0x02,
  0x30, 0x00, 0x00, 0x00, 0x98, 0xfd, 0xff, 0xff, 0x23, 0x00, 0x00, 0x00,
  0x73, 0x65, 0x71, 0x75, 0x65, 0x6e, 0x74, 0x69, 0x61, 0x6c, 0x2f, 0x6d,
  0x61, 0x78, 0x5f, 0x70, 0x6f, 0x6f, 0x6c, 0x69, 0x6e, 0x67, 0x31, 0x64,
  0x2f, 0x45, 0x78, 0x70, 0x61, 0x6e, 0x64, 0x44, 0x69, 0x6d, 0x73, 0x00,
  0x01, 0x00, 0x00, 0x00, 0x04, 0x00, 0x00, 0x00, 0xd6, 0xfe, 0xff, 0xff,
  0x14, 0x00, 0x00, 0x00, 0x14, 0x00, 0x00, 0x00, 0x09, 0x00, 0x00, 0x00,
  0x00, 0x00, 0x00, 0x02, 0x30, 0x00, 0x00, 0x00, 0xe4, 0xfd, 0xff, 0xff,
  0x23, 0x00, 0x00, 0x00, 0x73, 0x65, 0x71, 0x75, 0x65, 0x6e, 0x74, 0x69,
  0x61, 0x6c, 0x2f, 0x63, 0x6f, 0x6e, 0x76, 0x31, 0x64, 0x2f, 0x43, 0x6f,
  0x6e, 0x76, 0x31, 0x44, 0x2f, 0x45, 0x78, 0x70, 0x61, 0x6e, 0x64, 0x44,
  0x69, 0x6d, 0x73, 0x00, 0x01, 0x00, 0x00, 0x00, 0x04, 0x00, 0x00, 0x00,
  0x3a, 0xfe, 0xff, 0xff, 0x10, 0x00, 0x00, 0x00, 0x10, 0x00, 0x00, 0x00,
  0x08, 0x00, 0x00, 0x00, 0x28, 0x00, 0x00, 0x00, 0x2c, 0xfe, 0xff, 0xff,
  0x1a, 0x00, 0x00, 0x00, 0x73, 0x65, 0x71, 0x75, 0x65, 0x6e, 0x74, 0x69,
  0x61, 0x6c, 0x2f, 0x63, 0x6f, 0x6e, 0x76, 0x31, 0x64, 0x5f, 0x31, 0x2f,
  0x43, 0x6f, 0x6e, 0x76, 0x31, 0x44, 0x00, 0x00, 0x04, 0x00, 0x00, 0x00,
  0x10, 0x00, 0x00, 0x00, 0x01, 0x00, 0x00, 0x00, 0x03, 0x00, 0x00, 0x00,
  0x08, 0x00, 0x00, 0x00, 0x86, 0xfe, 0xff, 0xff, 0x10, 0x00, 0x00, 0x00,
  0x10, 0x00, 0x00, 0x00, 0x07, 0x00, 0x00, 0x00, 0x28, 0x00, 0x00, 0x00,
  0x78, 0xfe, 0xff, 0xff, 0x18, 0x00, 0x00, 0x00, 0x73, 0x65, 0x71, 0x75,
  0x65, 0x6e, 0x74, 0x69, 0x61, 0x6c, 0x2f, 0x63, 0x6f, 0x6e, 0x76, 0x31,
  0x64, 0x2f, 0x43, 0x6f, 0x6e, 0x76, 0x31, 0x44, 0x00, 0x00, 0x00, 0x00,
  0x04, 0x00, 0x00, 0x00, 0x08, 0x00, 0x00, 0x00, 0x01, 0x00, 0x00, 0x00,
  0x03, 0x00, 0x00, 0x00, 0x0d, 0x00, 0x00, 0x00, 0xd2, 0xfe, 0xff, 0xff,
  0x10, 0x00, 0x00, 0x00, 0x10, 0x00, 0x00, 0x00, 0x06, 0x00, 0x00, 0x00,
  0x28, 0x00, 0x00, 0x00, 0xc4, 0xfe, 0xff, 0xff, 0x18, 0x00, 0x00, 0x00,
  0x73, 0x65, 0x71, 0x75, 0x65, 0x6e, 0x74, 0x69, 0x61, 0x6c, 0x2f, 0x79,
  0x5f, 0x70, 0x72, 0x65, 0x64, 0x2f, 0x4d, 0x61, 0x74, 0x4d, 0x75, 0x6c,
  0x00, 0x00, 0x00, 0x00, 0x02, 0x00, 0x00, 0x00, 0x07, 0x00, 0x00, 0x00,
  0xd0, 0x00, 0x00, 0x00, 0x00, 0x00, 0x0e, 0x00, 0x18, 0x00, 0x14, 0x00,
  0x13, 0x00, 0x0c, 0x00, 0x08, 0x00, 0x04, 0x00, 0x0e, 0x00, 0x00, 0x00,
  0x14, 0x00, 0x00, 0x00, 0x14, 0x00, 0x00, 0x00, 0x05, 0x00, 0x00, 0x00,
  0x00, 0x00, 0x00, 0x02, 0x28, 0x00, 0x00, 0x00, 0x1c, 0xff, 0xff, 0xff,
  0x18, 0x00, 0x00, 0x00, 0x73, 0x65, 0x71, 0x75, 0x65, 0x6e, 0x74, 0x69,
  0x61, 0x6c, 0x2f, 0x66, 0x6c, 0x61, 0x74, 0x74, 0x65, 0x6e, 0x2f, 0x43,
  0x6f, 0x6e, 0x73, 0x74, 0x00, 0x00, 0x00, 0x00, 0x01, 0x00, 0x00, 0x00,
  0x02, 0x00, 0x00, 0x00, 0x6a, 0xff, 0xff, 0xff, 0x10, 0x00, 0x00, 0x00,
  0x10, 0x00, 0x00, 0x00, 0x04, 0x00, 0x00, 0x00, 0x18, 0x00, 0x00, 0x00,
  0x5c, 0xff, 0xff, 0xff, 0x0b, 0x00, 0x00, 0x00, 0x63, 0x6f, 0x6e, 0x76,
  0x31, 0x64, 0x2f, 0x62, 0x69, 0x61, 0x73, 0x00, 0x01, 0x00, 0x00, 0x00,
  0x08, 0x00, 0x00, 0x00, 0x9a, 0xff, 0xff, 0xff, 0x10, 0x00, 0x00, 0x00,
  0x10, 0x00, 0x00, 0x00, 0x03, 0x00, 0x00, 0x00, 0x1c, 0x00, 0x00, 0x00,
  0x8c, 0xff, 0xff, 0xff, 0x0d, 0x00, 0x00, 0x00, 0x63, 0x6f, 0x6e, 0x76,
  0x31, 0x64, 0x5f, 0x31, 0x2f, 0x62, 0x69, 0x61, 0x73, 0x00, 0x00, 0x00,
  0x01, 0x00, 0x00, 0x00, 0x10, 0x00, 0x00, 0x00, 0xce, 0xff, 0xff, 0xff,
  0x10, 0x00, 0x00, 0x00, 0x10, 0x00, 0x00, 0x00, 0x02, 0x00, 0x00, 0x00,
  0x18, 0x00, 0x00, 0x00, 0xc0, 0xff, 0xff, 0xff, 0x0b, 0x00, 0x00, 0x00,
  0x79, 0x5f, 0x70, 0x72, 0x65, 0x64, 0x2f, 0x62, 0x69, 0x61, 0x73, 0x00,
  0x01, 0x00, 0x00, 0x00, 0x07, 0x00, 0x00, 0x00, 0x00, 0x00, 0x0e, 0x00,
  0x14, 0x00, 0x10, 0x00, 0x00, 0x00, 0x0c, 0x00, 0x08, 0x00, 0x04, 0x00,
  0x0e, 0x00, 0x00, 0x00, 0x14, 0x00, 0x00, 0x00, 0x14, 0x00, 0x00, 0x00,
  0x01, 0x00, 0x00, 0x00, 0x24, 0x00, 0x00, 0x00, 0x04, 0x00, 0x04, 0x00,
  0x04, 0x00, 0x00, 0x00, 0x13, 0x00, 0x00, 0x00, 0x73, 0x65, 0x72, 0x76,
  0x69, 0x6e, 0x67, 0x5f, 0x64, 0x65, 0x66, 0x61, 0x75, 0x6c, 0x74, 0x5f,
  0x78, 0x3a, 0x30, 0x00, 0x02, 0x00, 0x00, 0x00, 0x01, 0x00, 0x00, 0x00,
  0x7d, 0x02, 0x00, 0x00, 0x05, 0x00, 0x00, 0x00, 0x50, 0x00, 0x00, 0x00,
  0x34, 0x00, 0x00, 0x00, 0x24, 0x00, 0x00, 0x00, 0x14, 0x00, 0x00, 0x00,
  0x04, 0x00, 0x00, 0x00, 0xd0, 0xff, 0xff, 0xff, 0x19, 0x00, 0x00, 0x00,
  0x00, 0x00, 0x00, 0x19, 0xdc, 0xff, 0xff, 0xff, 0x09, 0x00, 0x00, 0x00,
  0x00, 0x00, 0x00, 0x09, 0xe8, 0xff, 0xff, 0xff, 0x11, 0x00, 0x00, 0x00,
  0x00, 0x00, 0x00, 0x11, 0xf4, 0xff, 0xff, 0xff, 0x03, 0x00, 0x00, 0x00,
  0x00, 0x00, 0x00, 0x03, 0x0c, 0x00, 0x0c, 0x00, 0x0b, 0x00, 0x00, 0x00,
  0x00, 0x00, 0x04, 0x00, 0x0c, 0x00, 0x00, 0x00, 0x16, 0x00, 0x00, 0x00,
  0x00, 0x00, 0x00, 0x16
};
unsigned int trained_tflite_len = 12196;

#endif // _EI_CLASSIFIER_TFLITE_TRAINED_H_

